<pad>	0
<s>	0
</s>	0
<unk>	0
<PAD>	0
<BOF>	0
<EOF>	0
<UNK>	0
<INDENT>	0
<DEDENT>	0
<NEWLINE>	0
<COMMENT>	0
<0x00>	0
<0x01>	0
<0x02>	0
<0x03>	0
<0x04>	0
<0x05>	0
<0x06>	0
<0x07>	0
<0x08>	0
<0x09>	0
<0x0A>	0
<0x0B>	0
<0x0C>	0
<0x0D>	0
<0x0E>	0
<0x0F>	0
<0x10>	0
<0x11>	0
<0x12>	0
<0x13>	0
<0x14>	0
<0x15>	0
<0x16>	0
<0x17>	0
<0x18>	0
<0x19>	0
<0x1A>	0
<0x1B>	0
<0x1C>	0
<0x1D>	0
<0x1E>	0
<0x1F>	0
<0x20>	0
<0x21>	0
<0x22>	0
<0x23>	0
<0x24>	0
<0x25>	0
<0x26>	0
<0x27>	0
<0x28>	0
<0x29>	0
<0x2A>	0
<0x2B>	0
<0x2C>	0
<0x2D>	0
<0x2E>	0
<0x2F>	0
<0x30>	0
<0x31>	0
<0x32>	0
<0x33>	0
<0x34>	0
<0x35>	0
<0x36>	0
<0x37>	0
<0x38>	0
<0x39>	0
<0x3A>	0
<0x3B>	0
<0x3C>	0
<0x3D>	0
<0x3E>	0
<0x3F>	0
<0x40>	0
<0x41>	0
<0x42>	0
<0x43>	0
<0x44>	0
<0x45>	0
<0x46>	0
<0x47>	0
<0x48>	0
<0x49>	0
<0x4A>	0
<0x4B>	0
<0x4C>	0
<0x4D>	0
<0x4E>	0
<0x4F>	0
<0x50>	0
<0x51>	0
<0x52>	0
<0x53>	0
<0x54>	0
<0x55>	0
<0x56>	0
<0x57>	0
<0x58>	0
<0x59>	0
<0x5A>	0
<0x5B>	0
<0x5C>	0
<0x5D>	0
<0x5E>	0
<0x5F>	0
<0x60>	0
<0x61>	0
<0x62>	0
<0x63>	0
<0x64>	0
<0x65>	0
<0x66>	0
<0x67>	0
<0x68>	0
<0x69>	0
<0x6A>	0
<0x6B>	0
<0x6C>	0
<0x6D>	0
<0x6E>	0
<0x6F>	0
<0x70>	0
<0x71>	0
<0x72>	0
<0x73>	0
<0x74>	0
<0x75>	0
<0x76>	0
<0x77>	0
<0x78>	0
<0x79>	0
<0x7A>	0
<0x7B>	0
<0x7C>	0
<0x7D>	0
<0x7E>	0
<0x7F>	0
<0x80>	0
<0x81>	0
<0x82>	0
<0x83>	0
<0x84>	0
<0x85>	0
<0x86>	0
<0x87>	0
<0x88>	0
<0x89>	0
<0x8A>	0
<0x8B>	0
<0x8C>	0
<0x8D>	0
<0x8E>	0
<0x8F>	0
<0x90>	0
<0x91>	0
<0x92>	0
<0x93>	0
<0x94>	0
<0x95>	0
<0x96>	0
<0x97>	0
<0x98>	0
<0x99>	0
<0x9A>	0
<0x9B>	0
<0x9C>	0
<0x9D>	0
<0x9E>	0
<0x9F>	0
<0xA0>	0
<0xA1>	0
<0xA2>	0
<0xA3>	0
<0xA4>	0
<0xA5>	0
<0xA6>	0
<0xA7>	0
<0xA8>	0
<0xA9>	0
<0xAA>	0
<0xAB>	0
<0xAC>	0
<0xAD>	0
<0xAE>	0
<0xAF>	0
<0xB0>	0
<0xB1>	0
<0xB2>	0
<0xB3>	0
<0xB4>	0
<0xB5>	0
<0xB6>	0
<0xB7>	0
<0xB8>	0
<0xB9>	0
<0xBA>	0
<0xBB>	0
<0xBC>	0
<0xBD>	0
<0xBE>	0
<0xBF>	0
<0xC0>	0
<0xC1>	0
<0xC2>	0
<0xC3>	0
<0xC4>	0
<0xC5>	0
<0xC6>	0
<0xC7>	0
<0xC8>	0
<0xC9>	0
<0xCA>	0
<0xCB>	0
<0xCC>	0
<0xCD>	0
<0xCE>	0
<0xCF>	0
<0xD0>	0
<0xD1>	0
<0xD2>	0
<0xD3>	0
<0xD4>	0
<0xD5>	0
<0xD6>	0
<0xD7>	0
<0xD8>	0
<0xD9>	0
<0xDA>	0
<0xDB>	0
<0xDC>	0
<0xDD>	0
<0xDE>	0
<0xDF>	0
<0xE0>	0
<0xE1>	0
<0xE2>	0
<0xE3>	0
<0xE4>	0
<0xE5>	0
<0xE6>	0
<0xE7>	0
<0xE8>	0
<0xE9>	0
<0xEA>	0
<0xEB>	0
<0xEC>	0
<0xED>	0
<0xEE>	0
<0xEF>	0
<0xF0>	0
<0xF1>	0
<0xF2>	0
<0xF3>	0
<0xF4>	0
<0xF5>	0
<0xF6>	0
<0xF7>	0
<0xF8>	0
<0xF9>	0
<0xFA>	0
<0xFB>	0
<0xFC>	0
<0xFD>	0
<0xFE>	0
<0xFF>	0
__	-0
NE	-1
▁__	-2
LI	-3
LINE	-4
NEW	-5
NEWLINE	-6
DE	-7
▁(	-8
se	-9
▁)	-10
▁.	-11
NT	-12
DENT	-13
in	-14
re	-15
on	-16
at	-17
▁t	-18
▁,	-19
▁=	-20
▁:	-21
▁a	-22
or	-23
er	-24
st	-25
en	-26
▁i	-27
▁f	-28
▁c	-29
▁d	-30
▁se	-31
IN	-32
INDENT	-33
DEDENT	-34
he	-35
le	-36
""	-37
ar	-38
al	-39
▁'	-40
▁re	-41
me	-42
▁p	-43
lf	-44
▁self	-45
▁n	-46
ion	-47
ur	-48
▁in	-49
▁s	-50
▁o	-51
▁[	-52
ct	-53
an	-54
▁the	-55
it	-56
ce	-57
▁]	-58
▁e	-59
▁l	-60
ge	-61
de	-62
ro	-63
ent	-64
▁de	-65
▁b	-66
▁if	-67
ame	-68
ue	-69
ing	-70
▁m	-71
"""	-72
ut	-73
urn	-74
▁w	-75
turn	-76
▁"""	-77
ss	-78
pe	-79
ate	-80
▁for	-81
ot	-82
un	-83
▁v	-84
ra	-85
▁"	-86
id	-87
▁to	-88
▁st	-89
--	-90
▁#	-91
▁is	-92
▁return	-93
fi	-94
▁def	-95
mp	-96
ed	-97
▁N	-98
one	-99
▁_	-100
ist	-101
▁an	-102
ul	-103
ad	-104
ata	-105
▁of	-106
il	-107
▁T	-108
▁co	-109
um	-110
pt	-111
co	-112
get	-113
lo	-114
am	-115
ype	-116
▁con	-117
alue	-118
ch	-119
ter	-120
ke	-121
▁None	-122
ri	-123
is	-124
te	-125
up	-126
ation	-127
li	-128
▁not	-129
▁ex	-130
ve	-131
ck	-132
la	-133
es	-134
▁h	-135
▁fi	-136
th	-137
ath	-138
ect	-139
▁g	-140
▁and	-141
▁get	-142
name	-143
gs	-144
as	-145
par	-146
▁th	-147
el	-148
▁-	-149
``	-150
ult	-151
▁lo	-152
ab	-153
bj	-154
▁*	-155
ment	-156
ror	-157
▁+	-158
di	-159
key	-160
▁data	-161
▁be	-162
▁res	-163
ode	-164
▁or	-165
ser	-166
▁value	-167
▁u	-168
ction	-169
qu	-170
▁I	-171
ime	-172
▁ar	-173
end	-174
ma	-175
▁A	-176
▁str	-177
ise	-178
▁r	-179
type	-180
ver	-181
pp	-182
▁name	-183
▁par	-184
ol	-185
▁R	-186
ith	-187
and	-188
▁F	-189
▁{	-190
▁me	-191
ption	-192
----	-193
▁S	-194
▁ra	-195
param	-196
able	-197
ig	-198
xt	-199
▁C	-200
ts	-201
mat	-202
od	-203
rom	-204
▁as	-205
▁k	-206
▁di	-207
▁el	-208
bject	-209
ance	-210
▁else	-211
ta	-212
iz	-213
▁ne	-214
age	-215
ly	-216
ers	-217
que	-218
ort	-219
rror	-220
▁P	-221
▁key	-222
>>	-223
▁file	-224
Error	-225
ren	-226
ub	-227
▁%	-228
con	-229
▁==	-230
▁raise	-231
▁al	-232
▁pro	-233
ry	-234
to	-235
▁ma	-236
ase	-237
str	-238
▁j	-239
▁with	-240
ord	-241
▁from	-242
rue	-243
▁list	-244
put	-245
vi	-246
our	-247
res	-248
int	-249
▁path	-250
▁app	-251
eld	-252
▁set	-253
che	-254
ci	-255
set	-256
et	-257
ine	-258
▁ch	-259
file	-260
▁x	-261
▁``	-262
mple	-263
ic	-264
os	-265
quest	-266
args	-267
▁y	-268
us	-269
fig	-270
stance	-271
▁}	-272
url	-273
alse	-274
for	-275
all	-276
▁log	-277
▁pa	-278
▁format	-279
▁te	-280
▁E	-281
ow	-282
▁D	-283
▁len	-284
▁Re	-285
▁True	-286
red	-287
ource	-288
dd	-289
ssion	-290
path	-291
ault	-292
▁id	-293
ize	-294
ite	-295
▁object	-296
▁The	-297
▁on	-298
▁out	-299
att	-300
dex	-301
ive	-302
fo	-303
unt	-304
per	-305
art	-306
▁False	-307
data	-308
ms	-309
ack	-310
rent	-311
date	-312
▁ro	-313
▁col	-314
▁en	-315
wargs	-316
▁''	-317
lass	-318
pon	-319
alid	-320
▁sh	-321
ument	-322
▁exce	-323
odel	-324
▁np	-325
▁result	-326
▁wh	-327
lu	-328
out	-329
und	-330
ure	-331
##	-332
mm	-333
▁time	-334
iv	-335
▁this	-336
ameter	-337
▁that	-338
▁**	-339
▁M	-340
▁he	-341
▁do	-342
▁type	-343
ip	-344
im	-345
▁add	-346
ile	-347
reate	-348
error	-349
▁kwargs	-350
ange	-351
list	-352
ill	-353
cess	-354
▁new	-355
▁request	-356
sed	-357
▁by	-358
pa	-359
ray	-360
ition	-361
ery	-362
▁O	-363
▁string	-364
▁`	-365
ind	-366
▁append	-367
ponse	-368
▁fun	-369
op	-370
▁un	-371
ory	-372
ger	-373
sc	-374
ber	-375
thod	-376
▁>>	-377
▁V	-378
code	-379
ign	-380
▁config	-381
ust	-382
ff	-383
▁U	-384
ity	-385
▁ite	-386
der	-387
time	-388
▁up	-389
▁>>>	-390
Re	-391
▁cont	-392
▁are	-393
▁pre	-394
▁qu	-395
oin	-396
mo	-397
▁int	-398
▁it	-399
roup	-400
value	-401
▁try	-402
▁os	-403
rib	-404
ht	-405
▁L	-406
ces	-407
py	-408
uth	-409
pro	-410
▁num	-411
ran	-412
turns	-413
▁fil	-414
gument	-415
ary	-416
▁all	-417
▁args	-418
▁field	-419
▁except	-420
ute	-421
pl	-422
pi	-423
▁<	-424
▁url	-425
lif	-426
▁mat	-427
▁user	-428
▁G	-429
ild	-430
▁elif	-431
▁rep	-432
ost	-433
▁spe	-434
ave	-435
▁sub	-436
▁we	-437
▁cur	-438
son	-439
▁If	-440
lement	-441
om	-442
string	-443
▁error	-444
ule	-445
==	-446
▁will	-447
▁method	-448
',	-449
ok	-450
instance	-451
..	-452
dict	-453
▁'''	-454
ls	-455
bu	-456
form	-457
ay	-458
rint	-459
text	-460
ator	-461
ask	-462
ex	-463
class	-464
ssage	-465
heck	-466
ded	-467
▁param	-468
ast	-469
▁read	-470
ag	-471
ated	-472
ample	-473
read	-474
vent	-475
▁model	-476
▁W	-477
cation	-478
▁index	-479
low	-480
ore	-481
▁default	-482
ameters	-483
attr	-484
▁response	-485
Id	-486
▁>	-487
umn	-488
ound	-489
▁Th	-490
ork	-491
▁values	-492
ph	-493
▁start	-494
▁has	-495
▁function	-496
▁output	-497
):	-498
if	-499
ari	-500
rect	-501
▁B	-502
▁line	-503
ener	-504
mmand	-505
▁node	-506
ename	-507
tain	-508
act	-509
arch	-510
▁dict	-511
iven	-512
▁isinstance	-513
▁sy	-514
▁Returns	-515
▁le	-516
▁/	-517
▁text	-518
▁speci	-519
▁option	-520
bo	-521
▁This	-522
dir	-523
ew	-524
col	-525
▁+=	-526
▁max	-527
▁query	-528
mpl	-529
ca	-530
ken	-531
▁|	-532
▁end	-533
▁In	-534
▁at	-535
:`	-536
▁H	-537
sh	-538
▁use	-539
load	-540
ception	-541
▁instance	-542
▁create	-543
nt	-544
min	-545
▁z	-546
back	-547
--------	-548
return	-549
▁join	-550
▁params	-551
▁given	-552
nect	-553
▁can	-554
In	-555
▁print	-556
▁current	-557
cal	-558
mport	-559
atus	-560
ther	-561
vice	-562
▁array	-563
word	-564
rans	-565
rite	-566
lient	-567
▁comp	-568
':	-569
valid	-570
ifi	-571
▁call	-572
▁date	-573
ec	-574
po	-575
plit	-576
ail	-577
▁head	-578
val	-579
sion	-580
▁ac	-581
ir	-582
ml	-583
ste	-584
ull	-585
pre	-586
lock	-587
ER	-588
▁ext	-589
ersion	-590
▁so	-591
▁obj	-592
▁base	-593
fault	-594
ant	-595
()	-596
####	-597
▁check	-598
ape	-599
▁row	-600
uld	-601
▁ser	-602
ial	-603
loat	-604
odule	-605
▁update	-606
▁item	-607
ies	-608
gth	-609
▁Value	-610
ting	-611
▁input	-612
▁bo	-613
ib	-614
ON	-615
og	-616
AT	-617
fe	-618
."""	-619
tt	-620
log	-621
ps	-622
▁match	-623
▁number	-624
mplate	-625
▁auth	-626
▁pass	-627
qui	-628
port	-629
▁group	-630
▁no	-631
cord	-632
▁must	-633
▁message	-634
St	-635
Ex	-636
own	-637
ence	-638
sert	-639
clu	-640
ds	-641
▁table	-642
Con	-643
bug	-644
arget	-645
object	-646
ron	-647
▁import	-648
▁ca	-649
scri	-650
uple	-651
▁column	-652
lace	-653
▁ValueError	-654
fix	-655
ou	-656
▁contain	-657
mage	-658
map	-659
▁exist	-660
mb	-661
ress	-662
▁split	-663
ich	-664
▁specifi	-665
▁content	-666
.'	-667
ding	-668
ould	-669
▁lin	-670
▁bu	-671
▁@	-672
▁valid	-673
ree	-674
its	-675
▁source	-676
attrib	-677
lab	-678
do	-679
RE	-680
tern	-681
size	-682
▁per	-683
▁json	-684
▁--	-685
▁run	-686
▁version	-687
ty	-688
▁min	-689
▁range	-690
▁!	-691
▁filename	-692
rst	-693
base	-694
▁one	-695
▁su	-696
ST	-697
▁command	-698
move	-699
by	-700
lic	-701
bs	-702
▁float	-703
pen	-704
▁which	-705
▁!=	-706
rame	-707
Se	-708
lay	-709
count	-710
uct	-711
ll	-712
index	-713
▁ent	-714
fun	-715
line	-716
▁sup	-717
adata	-718
ang	-719
ach	-720
).	-721
▁Ex	-722
Type	-723
nd	-724
ses	-725
vel	-726
▁used	-727
▁items	-728
▁ax	-729
▁argument	-730
▁Par	-731
ote	-732
ac	-733
▁info	-734
Name	-735
Ke	-736
▁ver	-737
▁hand	-738
▁logger	-739
▁debug	-740
▁pl	-741
orm	-742
{}	-743
▁element	-744
mplement	-745
ates	-746
ream	-747
▁cls	-748
▁dis	-749
Key	-750
▁session	-751
info	-752
ning	-753
uration	-754
▁target	-755
gist	-756
▁find	-757
itle	-758
▁write	-759
ard	-760
gn	-761
▁keys	-762
len	-763
sing	-764
▁cal	-765
▁trans	-766
pect	-767
▁arg	-768
ield	-769
ump	-770
▁py	-771
xy	-772
ual	-773
▁size	-774
cur	-775
▁pos	-776
ank	-777
▁vari	-778
tent	-779
▁De	-780
▁gener	-781
▁code	-782
▁event	-783
gra	-784
cs	-785
▁tag	-786
lect	-787
we	-788
▁files	-789
."	-790
comp	-791
da	-792
▁only	-793
▁inter	-794
tadata	-795
num	-796
gin	-797
▁first	-798
ak	-799
▁Ar	-800
▁ass	-801
▁attrib	-802
▁connect	-803
▁other	-804
▁direct	-805
work	-806
▁pi	-807
▁filter	-808
▁have	-809
led	-810
field	-811
not	-812
**	-813
====	-814
fil	-815
▁load	-816
lection	-817
ature	-818
vert	-819
fa	-820
▁ret	-821
ations	-822
ep	-823
ments	-824
▁any	-825
array	-826
▁po	-827
▁whe	-828
▁Con	-829
▁names	-830
▁token	-831
with	-832
rip	-833
▁mo	-834
▁open	-835
▁--------	-836
▁status	-837
▁shape	-838
▁iter	-839
ler	-840
▁each	-841
mi	-842
atch	-843
▁module	-844
▁found	-845
model	-846
tes	-847
ob	-848
ors	-849
cke	-850
▁{}	-851
ical	-852
config	-853
▁class	-854
▁should	-855
pace	-856
default	-857
▁sort	-858
OR	-859
),	-860
LE	-861
▁q	-862
sg	-863
lin	-864
▁specified	-865
▁X	-866
user	-867
▁template	-868
ject	-869
api	-870
▁state	-871
ight	-872
quence	-873
Ar	-874
lean	-875
▁Parameters	-876
node	-877
▁over	-878
▁...	-879
▁client	-880
abel	-881
pos	-882
▁bool	-883
add	-884
ctionary	-885
iled	-886
▁resource	-887
rence	-888
▁search	-889
//	-890
yn	-891
lete	-892
scription	-893
clude	-894
ext	-895
iter	-896
ries	-897
▁tuple	-898
inal	-899
▁into	-900
row	-901
ids	-902
▁objects	-903
version	-904
quired	-905
▁doc	-906
utes	-907
mplemented	-908
▁tra	-909
▁results	-910
▁ta	-911
▁act	-912
cket	-913
▁char	-914
▁val	-915
▁part	-916
max	-917
▁sign	-918
Data	-919
▁optional	-920
▁parent	-921
▁image	-922
md	-923
▁sche	-924
thon	-925
▁label	-926
▁context	-927
sess	-928
igh	-929
nel	-930
obj	-931
json	-932
▁you	-933
PI	-934
ap	-935
▁->	-936
▁child	-937
app	-938
from	-939
▁sc	-940
start	-941
Par	-942
group	-943
entifi	-944
ait	-945
ong	-946
▁when	-947
main	-948
unk	-949
amb	-950
▁order	-951
▁clo	-952
▁parameters	-953
▁gra	-954
▁work	-955
ted	-956
▁exception	-957
▁count	-958
ID	-959
session	-960
▁dist	-961
ME	-962
idth	-963
▁msg	-964
▁assert	-965
viron	-966
tings	-967
Exception	-968
PE	-969
▁replace	-970
▁action	-971
untime	-972
so	-973
▁cache	-974
▁pop	-975
://	-976
▁exec	-977
sessment	-978
wer	-979
▁parse	-980
sent	-981
▁last	-982
▁sample	-983
▁remove	-984
point	-985
▁block	-986
▁task	-987
com	-988
▁J	-989
ative	-990
osid	-991
names	-992
lib	-993
ging	-994
▁Se	-995
▁'%	-996
ft	-997
▁does	-998
▁parameter	-999
▁cor	-1000
stem	-1001
List	-1002
▁root	-1003
AL	-1004
ain	-1005
label	-1006
est	-1007
▁off	-1008
('	-1009
ailed	-1010
▁----------	-1011
▁header	-1012
▁ed	-1013
Res	-1014
▁dictionary	-1015
ference	-1016
▁fe	-1017
attern	-1018
▁func	-1019
▁fields	-1020
▁record	-1021
▁sys	-1022
ld	-1023
mit	-1024
uto	-1025
▁vi	-1026
table	-1027
RL	-1028
ution	-1029
content	-1030
okup	-1031
ns	-1032
▁uni	-1033
ous	-1034
▁rel	-1035
mission	-1036
')	-1037
SE	-1038
Co	-1039
▁next	-1040
ster	-1041
▁fol	-1042
ats	-1043
AR	-1044
▁using	-1045
▁back	-1046
▁length	-1047
▁headers	-1048
▁server	-1049
########	-1050
values	-1051
▁but	-1052
cy	-1053
ization	-1054
▁title	-1055
▁variable	-1056
▁arguments	-1057
err	-1058
",	-1059
ody	-1060
item	-1061
query	-1062
▁directory	-1063
ils	-1064
▁contin	-1065
▁parser	-1066
▁strip	-1067
request	-1068
▁options	-1069
▁pri	-1070
▁extra	-1071
▁form	-1072
▁datetime	-1073
▁Args	-1074
dition	-1075
av	-1076
reak	-1077
▁ID	-1078
use	-1079
ome	-1080
ures	-1081
▁----	-1082
ension	-1083
▁yield	-1084
func	-1085
call	-1086
▁var	-1087
De	-1088
resource	-1089
amp	-1090
params	-1091
auth	-1092
format	-1093
oth	-1094
▁make	-1095
are	-1096
Set	-1097
arning	-1098
raise	-1099
face	-1100
ide	-1101
▁where	-1102
ref	-1103
▁St	-1104
rig	-1105
rtype	-1106
lp	-1107
ambda	-1108
types	-1109
▁defin	-1110
▁page	-1111
mpty	-1112
vis	-1113
vid	-1114
ready	-1115
▁'-	-1116
core	-1117
▁ref	-1118
▁'/	-1119
▁returns	-1120
peration	-1121
▁regist	-1122
▁copy	-1123
▁while	-1124
ccess	-1125
sub	-1126
▁word	-1127
otal	-1128
annel	-1129
head	-1130
▁\	-1131
▁connection	-1132
ark	-1133
▁comm	-1134
run	-1135
''	-1136
▁exp	-1137
▁sum	-1138
▁init	-1139
▁returned	-1140
▁service	-1141
▁dec	-1142
▁exists	-1143
mail	-1144
Pro	-1145
length	-1146
ION	-1147
ped	-1148
orts	-1149
▁local	-1150
▁av	-1151
queue	-1152
lob	-1153
▁continue	-1154
option	-1155
ormal	-1156
='	-1157
rc	-1158
fore	-1159
entifier	-1160
rix	-1161
▁For	-1162
▁db	-1163
imum	-1164
cent	-1165
▁gen	-1166
▁comple	-1167
ches	-1168
▁then	-1169
hand	-1170
▁attr	-1171
Argument	-1172
ible	-1173
oints	-1174
▁ad	-1175
pping	-1176
cul	-1177
no	-1178
▁stream	-1179
▁errors	-1180
▁mode	-1181
ume	-1182
ating	-1183
formation	-1184
▁secon	-1185
resh	-1186
ql	-1187
|'	-1188
File	-1189
▁test	-1190
▁------	-1191
▁host	-1192
andom	-1193
Lo	-1194
▁callback	-1195
alog	-1196
ized	-1197
action	-1198
▁color	-1199
▁wra	-1200
▁diff	-1201
lication	-1202
rid	-1203
▁lower	-1204
▁Exception	-1205
ass	-1206
les	-1207
▁Return	-1208
▁Type	-1209
Session	-1210
▁process	-1211
▁was	-1212
files	-1213
cre	-1214
▁sequence	-1215
ax	-1216
▁inst	-1217
play	-1218
▁ter	-1219
▁indi	-1220
▁Un	-1221
▁change	-1222
▁htt	-1223
update	-1224
ustom	-1225
ne	-1226
▁lines	-1227
onent	-1228
`.	-1229
▁need	-1230
▁case	-1231
ify	-1232
▁ali	-1233
▁save	-1234
mote	-1235
▁star	-1236
▁entry	-1237
sy	-1238
▁mult	-1239
▁allow	-1240
▁metadata	-1241
▁man	-1242
▁provi	-1243
▁lim	-1244
htt	-1245
▁'\	-1246
view	-1247
result	-1248
▁break	-1249
▁settings	-1250
ear	-1251
lease	-1252
ched	-1253
▁Key	-1254
las	-1255
▁same	-1256
▁logging	-1257
my	-1258
AN	-1259
wise	-1260
ET	-1261
token	-1262
vironment	-1263
▁already	-1264
▁collection	-1265
event	-1266
old	-1267
TE	-1268
uid	-1269
▁password	-1270
▁Get	-1271
▁prefix	-1272
OD	-1273
▁ab	-1274
▁dest	-1275
▁""	-1276
▁dtype	-1277
'|'	-1278
▁more	-1279
keys	-1280
uri	-1281
coding	-1282
▁fail	-1283
▁columns	-1284
ML	-1285
▁orig	-1286
▁delete	-1287
▁dataset	-1288
pend	-1289
ved	-1290
ingle	-1291
of	-1292
ailable	-1293
yload	-1294
stamp	-1295
▁std	-1296
▁job	-1297
The	-1298
▁proper	-1299
▁-------	-1300
▁timeout	-1301
ix	-1302
ays	-1303
filter	-1304
var	-1305
fy	-1306
ick	-1307
umpy	-1308
▁position	-1309
▁bin	-1310
▁edge	-1311
▁'_	-1312
▁build	-1313
teger	-1314
▁author	-1315
▁getattr	-1316
fter	-1317
▁raw	-1318
iss	-1319
▁attribute	-1320
net	-1321
be	-1322
▁plot	-1323
▁pack	-1324
process	-1325
▁configuration	-1326
▁handle	-1327
dis	-1328
▁help	-1329
▁database	-1330
message	-1331
status	-1332
▁post	-1333
umer	-1334
▁Data	-1335
▁An	-1336
▁Q	-1337
parse	-1338
tag	-1339
▁level	-1340
CT	-1341
cept	-1342
▁description	-1343
state	-1344
::	-1345
ols	-1346
▁dir	-1347
▁err	-1348
▁lambda	-1349
atalog	-1350
uage	-1351
▁close	-1352
▁limit	-1353
▁meta	-1354
fin	-1355
db	-1356
lugin	-1357
inter	-1358
df	-1359
anguage	-1360
▁view	-1361
▁API	-1362
▁pub	-1363
▁include	-1364
▁information	-1365
ring	-1366
▁map	-1367
▁single	-1368
lux	-1369
ager	-1370
▁Default	-1371
}'	-1372
spe	-1373
▁proxy	-1374
argument	-1375
}"	-1376
▁send	-1377
▁mean	-1378
raw	-1379
▁temp	-1380
▁document	-1381
rial	-1382
▁Not	-1383
check	-1384
TT	-1385
mber	-1386
▁axis	-1387
▁than	-1388
▁chunk	-1389
part	-1390
io	-1391
▁api	-1392
▁idx	-1393
▁cmd	-1394
▁Create	-1395
▁select	-1396
input	-1397
ner	-1398
pper	-1399
man	-1400
],	-1401
gh	-1402
pth	-1403
▁frame	-1404
▁offset	-1405
sign	-1406
ud	-1407
▁convert	-1408
▁tw	-1409
▁empty	-1410
column	-1411
▁equ	-1412
▁Y	-1413
▁there	-1414
Element	-1415
gex	-1416
▁DE	-1417
▁starts	-1418
Un	-1419
ttrib	-1420
UL	-1421
olean	-1422
▁zer	-1423
itory	-1424
▁body	-1425
▁im	-1426
temp	-1427
quen	-1428
▁schema	-1429
output	-1430
▁payload	-1431
▁pattern	-1432
▁required	-1433
▁top	-1434
cache	-1435
create	-1436
None	-1437
rop	-1438
▁ag	-1439
command	-1440
response	-1441
Di	-1442
▁random	-1443
▁elements	-1444
▁containing	-1445
bin	-1446
▁'--	-1447
tra	-1448
right	-1449
▁mask	-1450
▁old	-1451
SS	-1452
host	-1453
▁seg	-1454
▁bet	-1455
▁"%	-1456
ell	-1457
rit	-1458
▁abs	-1459
metadata	-1460
pected	-1461
▁pas	-1462
ported	-1463
▁location	-1464
``.	-1465
source	-1466
▁port	-1467
CE	-1468
ash	-1469
yle	-1470
▁project	-1471
▁Co	-1472
module	-1473
▁repre	-1474
level	-1475
▁>=	-1476
color	-1477
▁net	-1478
nder	-1479
▁down	-1480
▁List	-1481
sets	-1482
▁total	-1483
mary	-1484
▁reference	-1485
▁mon	-1486
range	-1487
▁stop	-1488
▁del	-1489
▁sorted	-1490
▁fla	-1491
▁df	-1492
ports	-1493
Failed	-1494
▁section	-1495
▁charact	-1496
▁ut	-1497
Return	-1498
IT	-1499
mt	-1500
rel	-1501
▁may	-1502
▁link	-1503
▁numpy	-1504
off	-1505
Time	-1506
indow	-1507
="	-1508
ween	-1509
▁device	-1510
OM	-1511
urse	-1512
lat	-1513
▁access	-1514
▁see	-1515
ier	-1516
▁requests	-1517
▁follow	-1518
▁bytes	-1519
stra	-1520
store	-1521
▁sp	-1522
▁its	-1523
▁coord	-1524
Found	-1525
True	-1526
▁address	-1527
▁full	-1528
========	-1529
mon	-1530
▁URL	-1531
▁seq	-1532
▁xml	-1533
▁available	-1534
▁struct	-1535
▁some	-1536
▁before	-1537
gen	-1538
script	-1539
sp	-1540
▁passed	-1541
kwargs	-1542
order	-1543
":	-1544
▁enumer	-1545
▁com	-1546
struct	-1547
template	-1548
cate	-1549
frame	-1550
▁show	-1551
ose	-1552
element	-1553
▁reg	-1554
direct	-1555
CH	-1556
cope	-1557
`,	-1558
▁provided	-1559
tri	-1560
self	-1561
Ch	-1562
vision	-1563
MA	-1564
ater	-1565
init	-1566
oi	-1567
fields	-1568
vari	-1569
dist	-1570
match	-1571
▁http	-1572
▁created	-1573
only	-1574
▁implemented	-1575
last	-1576
ration	-1577
▁complete	-1578
']	-1579
lines	-1580
▁encode	-1581
oc	-1582
▁Sub	-1583
connect	-1584
tem	-1585
nown	-1586
▁non	-1587
link	-1588
▁Ra	-1589
ttribute	-1590
amples	-1591
▁Add	-1592
▁condition	-1593
▁enumerate	-1594
itu	-1595
▁ET	-1596
▁queue	-1597
▁normal	-1598
▁width	-1599
block	-1600
ternal	-1601
ither	-1602
▁Invalid	-1603
doc	-1604
Num	-1605
number	-1606
difi	-1607
▁wait	-1608
▁encoding	-1609
SON	-1610
ffer	-1611
html	-1612
▁RE	-1613
ities	-1614
▁store	-1615
sup	-1616
oci	-1617
ets	-1618
pass	-1619
▁attributes	-1620
ake	-1621
▁rows	-1622
▁thread	-1623
book	-1624
▁graph	-1625
▁two	-1626
verse	-1627
▁startswith	-1628
FA	-1629
▁between	-1630
▁<=	-1631
▁exc	-1632
sum	-1633
let	-1634
like	-1635
ility	-1636
▁ign	-1637
ered	-1638
gre	-1639
▁represent	-1640
Value	-1641
lobal	-1642
lear	-1643
bose	-1644
▁ob	-1645
filename	-1646
pr	-1647
returns	-1648
ODO	-1649
▁after	-1650
ING	-1651
ens	-1652
▁package	-1653
ived	-1654
▁execute	-1655
rypt	-1656
▁channel	-1657
YPE	-1658
▁Py	-1659
▁We	-1660
))	-1661
ript	-1662
▁warning	-1663
▁nodes	-1664
ification	-1665
Not	-1666
pack	-1667
TTP	-1668
▁my	-1669
▁decode	-1670
...	-1671
▁handler	-1672
rou	-1673
▁Name	-1674
▁zip	-1675
aly	-1676
bank	-1677
http	-1678
▁Res	-1679
ish	-1680
root	-1681
▁Pro	-1682
UT	-1683
liance	-1684
search	-1685
▁ind	-1686
items	-1687
.*	-1688
del	-1689
etch	-1690
tree	-1691
write	-1692
su	-1693
Me	-1694
Get	-1695
▁sim	-1696
lable	-1697
▁username	-1698
▁&	-1699
▁point	-1700
▁"\	-1701
▁ph	-1702
▁Set	-1703
tex	-1704
▁now	-1705
▁matrix	-1706
▁types	-1707
▁diffe	-1708
PT	-1709
▁tags	-1710
xel	-1711
▁Me	-1712
top	-1713
entic	-1714
round	-1715
derr	-1716
stream	-1717
▁remote	-1718
function	-1719
ics	-1720
itude	-1721
ranch	-1722
issing	-1723
ike	-1724
▁assign	-1725
ULT	-1726
▁ip	-1727
▁hash	-1728
flow	-1729
▁stat	-1730
▁opt	-1731
▁auto	-1732
▁TypeError	-1733
KE	-1734
RI	-1735
callback	-1736
erge	-1737
char	-1738
▁TODO	-1739
respon	-1740
▁lay	-1741
▁initial	-1742
▁stdout	-1743
ptional	-1744
FI	-1745
du	-1746
utf	-1747
▁domain	-1748
new	-1749
▁final	-1750
▁component	-1751
width	-1752
ful	-1753
roll	-1754
assessment	-1755
rie	-1756
▁also	-1757
AG	-1758
rol	-1759
▁'.	-1760
▁identifier	-1761
▁pk	-1762
▁tree	-1763
ATE	-1764
quire	-1765
section	-1766
▁cli	-1767
print	-1768
cale	-1769
Read	-1770
vider	-1771
address	-1772
gr	-1773
ular	-1774
▁Lo	-1775
▁year	-1776
▁insert	-1777
▁register	-1778
ans	-1779
OC	-1780
▁Check	-1781
▁super	-1782
pub	-1783
page	-1784
raph	-1785
▁been	-1786
▁ct	-1787
post	-1788
atures	-1789
▁aw	-1790
▁fast	-1791
▁existing	-1792
▁sk	-1793
gest	-1794
▁unique	-1795
hed	-1796
▁desc	-1797
▁account	-1798
mask	-1799
bytes	-1800
ties	-1801
▁associ	-1802
****	-1803
sche	-1804
▁sin	-1805
▁syn	-1806
title	-1807
method	-1808
▁multip	-1809
▁feature	-1810
▁ast	-1811
tuple	-1812
atory	-1813
compliance	-1814
▁KeyError	-1815
▁models	-1816
coun	-1817
▁keyword	-1818
▁..	-1819
prefix	-1820
▁custom	-1821
▁environment	-1822
true	-1823
▁flux	-1824
exception	-1825
▁hy	-1826
▁invalid	-1827
▁verbose	-1828
)'	-1829
▁system	-1830
▁force	-1831
▁dump	-1832
actor	-1833
▁src	-1834
rough	-1835
▁generate	-1836
▁conf	-1837
access	-1838
▁called	-1839
['	-1840
pression	-1841
▁success	-1842
QU	-1843
▁hasattr	-1844
ho	-1845
▁integer	-1846
trans	-1847
▁Per	-1848
build	-1849
ination	-1850
TYPE	-1851
▁conn	-1852
▁signal	-1853
▁otherwise	-1854
ush	-1855
record	-1856
("	-1857
proxy	-1858
pha	-1859
luster	-1860
▁Operation	-1861
header	-1862
env	-1863
▁seconds	-1864
ored	-1865
▁sent	-1866
orage	-1867
▁actual	-1868
▁"/	-1869
Dict	-1870
▁JSON	-1871
ert	-1872
parent	-1873
server	-1874
▁hist	-1875
Item	-1876
task	-1877
very	-1878
▁endpoint	-1879
▁der	-1880
uni	-1881
▁tmp	-1882
FAULT	-1883
▁File	-1884
▁extend	-1885
client	-1886
▁like	-1887
ential	-1888
▁email	-1889
▁exceptions	-1890
OST	-1891
▁based	-1892
ency	-1893
vious	-1894
NA	-1895
▁prob	-1896
To	-1897
▁cons	-1898
▁env	-1899
▁',	-1900
▁exit	-1901
▁plugin	-1902
▁unit	-1903
context	-1904
null	-1905
▁parts	-1906
cor	-1907
################	-1908
▁example	-1909
▁uri	-1910
For	-1911
term	-1912
▁day	-1913
image	-1914
lasses	-1915
.,	-1916
▁dt	-1917
andatory	-1918
arn	-1919
change	-1920
▁serial	-1921
ffix	-1922
ship	-1923
ync	-1924
▁pair	-1925
plot	-1926
place	-1927
▁sa	-1928
ND	-1929
Object	-1930
child	-1931
older	-1932
▁OperationFailed	-1933
comm	-1934
▁loc	-1935
Config	-1936
▁Attribute	-1937
▁network	-1938
▁depend	-1939
▁display	-1940
▁Id	-1941
▁lookup	-1942
vate	-1943
▁dim	-1944
▁mandatory	-1945
▁objective	-1946
org	-1947
▁following	-1948
▁See	-1949
duct	-1950
aded	-1951
▁specify	-1952
parser	-1953
/{	-1954
si	-1955
▁vect	-1956
ateg	-1957
ories	-1958
▁container	-1959
▁either	-1960
▁correspon	-1961
OG	-1962
▁'.'	-1963
▁Null	-1964
Hand	-1965
case	-1966
tails	-1967
otif	-1968
abled	-1969
test	-1970
entity	-1971
clo	-1972
rection	-1973
▁mapping	-1974
▁definition	-1975
▁points	-1976
gram	-1977
vals	-1978
ights	-1979
▁Raise	-1980
▁sql	-1981
ationship	-1982
▁calcul	-1983
▁lat	-1984
▁analy	-1985
▁Note	-1986
▁mark	-1987
ride	-1988
the	-1989
State	-1990
▁step	-1991
▁clean	-1992
▁pol	-1993
models	-1994
▁python	-1995
'.	-1996
▁distance	-1997
▁pe	-1998
Create	-1999
▁through	-2000
()``	-2001
ions	-2002
conf	-2003
▁variables	-2004
ift	-2005
pdate	-2006
▁just	-2007
▁stats	-2008
ww	-2009
▁SubElement	-2010
▁expected	-2011
▁upper	-2012
msg	-2013
xml	-2014
dim	-2015
▁stderr	-2016
▁User	-2017
lan	-2018
▁No	-2019
▁It	-2020
unction	-2021
fg	-2022
idd	-2023
idx	-2024
▁HTTP	-2025
False	-2026
▁oper	-2027
▁them	-2028
▁K	-2029
pri	-2030
▁img	-2031
▁oc	-2032
▁groups	-2033
▁mod	-2034
reshold	-2035
▁want	-2036
▁align	-2037
▁coordin	-2038
▁timestamp	-2039
▁Di	-2040
▁defined	-2041
Add	-2042
▁repos	-2043
thing	-2044
iod	-2045
quences	-2046
:`~	-2047
eni	-2048
▁missing	-2049
▁term	-2050
regist	-2051
lim	-2052
gress	-2053
▁NullArgument	-2054
▁AttributeError	-2055
▁Gener	-2056
▁strings	-2057
▁ge	-2058
meta	-2059
▁byte	-2060
▁language	-2061
down	-2062
▁main	-2063
ng	-2064
▁failed	-2065
RO	-2066
AM	-2067
▁right	-2068
▁original	-2069
gener	-2070
▁const	-2071
▁resp	-2072
▁bound	-2073
tml	-2074
▁ins	-2075
▁second	-2076
▁left	-2077
▁parsed	-2078
▁XML	-2079
▁your	-2080
objective	-2081
▁fn	-2082
open	-2083
▁contains	-2084
▁'{	-2085
loc	-2086
serv	-2087
▁authorization	-2088
network	-2089
▁pipe	-2090
▁course	-2091
Resource	-2092
▁si	-2093
▁failure	-2094
bar	-2095
▁wrap	-2096
▁unable	-2097
▁DEFAULT	-2098
lem	-2099
fici	-2100
riter	-2101
points	-2102
▁namespace	-2103
ivity	-2104
URL	-2105
▁don	-2106
ically	-2107
vices	-2108
▁IP	-2109
])	-2110
▁bit	-2111
▁lib	-2112
▁global	-2113
arg	-2114
▁they	-2115
▁whether	-2116
cies	-2117
▁month	-2118
rs	-2119
▁pixel	-2120
limit	-2121
IRE	-2122
ason	-2123
Qu	-2124
stead	-2125
▁maximum	-2126
▁runtime	-2127
▁iss	-2128
Frame	-2129
SI	-2130
Gets	-2131
grade	-2132
▁about	-2133
▁chain	-2134
▁previous	-2135
▁validate	-2136
rt	-2137
ants	-2138
curs	-2139
▁osid	-2140
ierarch	-2141
▁rece	-2142
▁Uni	-2143
▁socket	-2144
▁instances	-2145
No	-2146
▁fl	-2147
▁'/'	-2148
loy	-2149
Group	-2150
▁rule	-2151
WS	-2152
▁here	-2153
handle	-2154
▁fname	-2155
AD	-2156
▁op	-2157
tools	-2158
lied	-2159
pol	-2160
▁boolean	-2161
▁associated	-2162
fer	-2163
ings	-2164
▁Wh	-2165
▁'{}	-2166
optional	-2167
mal	-2168
▁kw	-2169
hash	-2170
other	-2171
▁coun	-2172
▁ow	-2173
▁extract	-2174
mbers	-2175
▁scope	-2176
▁poss	-2177
▁render	-2178
now	-2179
KEY	-2180
▁real	-2181
author	-2182
Col	-2183
bit	-2184
rary	-2185
password	-2186
Auth	-2187
olve	-2188
([	-2189
zone	-2190
graph	-2191
▁html	-2192
Returns	-2193
▁supported	-2194
:'	-2195
ie	-2196
▁go	-2197
▁take	-2198
▁application	-2199
▁regex	-2200
tocol	-2201
▁cent	-2202
Th	-2203
Node	-2204
cause	-2205
▁tokens	-2206
Form	-2207
ierarchy	-2208
'"	-2209
As	-2210
defin	-2211
entry	-2212
▁indices	-2213
▁matches	-2214
mode	-2215
▁req	-2216
▁separ	-2217
▁zeros	-2218
fn	-2219
seq	-2220
runtime	-2221
▁Optional	-2222
Log	-2223
rows	-2224
secon	-2225
fs	-2226
olume	-2227
Response	-2228
ribution	-2229
")	-2230
edge	-2231
itive	-2232
▁sci	-2233
▁commit	-2234
space	-2235
▁interface	-2236
▁assessment	-2237
Path	-2238
▁multiple	-2239
▁different	-2240
lot	-2241
▁To	-2242
dered	-2243
▁added	-2244
mory	-2245
▁clear	-2246
med	-2247
▁bl	-2248
▁ke	-2249
▁und	-2250
verage	-2251
▁instead	-2252
▁again	-2253
▁ary	-2254
▁decor	-2255
▁operation	-2256
/%	-2257
▁asset	-2258
OT	-2259
▁download	-2260
req	-2261
ffect	-2262
▁apply	-2263
oice	-2264
lookup	-2265
aml	-2266
ily	-2267
ished	-2268
shape	-2269
▁ends	-2270
▁Python	-2271
▁Runtime	-2272
CO	-2273
description	-2274
over	-2275
▁extension	-2276
▁member	-2277
▁specific	-2278
ract	-2279
ability	-2280
▁catalog	-2281
▁cluster	-2282
AB	-2283
▁nd	-2284
▁spec	-2285
▁hour	-2286
▁ids	-2287
▁depth	-2288
sv	-2289
▁style	-2290
▁ignore	-2291
dified	-2292
▁track	-2293
▁cre	-2294
▁merge	-2295
▁Raises	-2296
catalog	-2297
▁accept	-2298
▁unicode	-2299
▁Sh	-2300
izer	-2301
▁{}'	-2302
▁script	-2303
ient	-2304
float	-2305
Invalid	-2306
itor	-2307
▁true	-2308
▁repository	-2309
alled	-2310
▁long	-2311
pare	-2312
rict	-2313
AC	-2314
▁us	-2315
▁loop	-2316
cret	-2317
ices	-2318
▁property	-2319
▁labels	-2320
▁generator	-2321
▁Ser	-2322
▁pad	-2323
▁height	-2324
En	-2325
Check	-2326
ables	-2327
/'	-2328
gate	-2329
admin	-2330
au	-2331
bool	-2332
medi	-2333
▁fit	-2334
cat	-2335
▁fig	-2336
day	-2337
PTION	-2338
>'	-2339
``,	-2340
▁expression	-2341
},	-2342
ATH	-2343
▁alpha	-2344
▁running	-2345
▁put	-2346
eded	-2347
cl	-2348
▁'<	-2349
cont	-2350
▁Use	-2351
crypt	-2352
idget	-2353
eno	-2354
Comp	-2355
axis	-2356
ters	-2357
stack	-2358
itch	-2359
▁segment	-2360
▁corresponding	-2361
tach	-2362
GET	-2363
zip	-2364
▁{'	-2365
licy	-2366
▁ctx	-2367
▁paths	-2368
▁stack	-2369
position	-2370
▁fa	-2371
rieve	-2372
system	-2373
▁times	-2374
▁correct	-2375
▁site	-2376
cer	-2377
ways	-2378
until	-2379
proper	-2380
▁their	-2381
▁Object	-2382
tect	-2383
▁active	-2384
▁vector	-2385
String	-2386
location	-2387
ian	-2388
▁flag	-2389
▁characters	-2390
esc	-2391
lug	-2392
▁Do	-2393
ured	-2394
▁children	-2395
VER	-2396
tric	-2397
options	-2398
▁web	-2399
local	-2400
lice	-2401
▁cell	-2402
▁fetch	-2403
handler	-2404
na	-2405
▁RuntimeError	-2406
SC	-2407
ten	-2408
schema	-2409
▁without	-2410
ven	-2411
▁note	-2412
labels	-2413
equ	-2414
active	-2415
ground	-2416
missions	-2417
bers	-2418
IP	-2419
▁sha	-2420
forms	-2421
ents	-2422
QUIRE	-2423
Handler	-2424
▁window	-2425
copy	-2426
▁grade	-2427
uild	-2428
DI	-2429
▁require	-2430
▁subject	-2431
▁skip	-2432
ram	-2433
▁lon	-2434
ins	-2435
▁ST	-2436
▁lst	-2437
▁best	-2438
▁radi	-2439
▁folder	-2440
▁Request	-2441
valu	-2442
▁place	-2443
ploy	-2444
Client	-2445
▁uuid	-2446
ower	-2447
▁sig	-2448
▁warn	-2449
fla	-2450
gment	-2451
▁every	-2452
▁ns	-2453
▁vertex	-2454
▁samples	-2455
nap	-2456
pository	-2457
▁allowed	-2458
ighb	-2459
ints	-2460
assign	-2461
▁Log	-2462
uplic	-2463
▁score	-2464
▁within	-2465
▁matching	-2466
----------------	-2467
cast	-2468
▁sure	-2469
▁sequences	-2470
▁role	-2471
andard	-2472
▁events	-2473
datetime	-2474
▁contents	-2475
cho	-2476
wra	-2477
Ser	-2478
▁"-	-2479
QUIRED	-2480
obs	-2481
▁filepath	-2482
▁fp	-2483
▁revision	-2484
sk	-2485
▁repo	-2486
spec	-2487
itional	-2488
manager	-2489
▁gene	-2490
ons	-2491
cifi	-2492
▁login	-2493
QL	-2494
▁En	-2495
▁backend	-2496
▁character	-2497
depth	-2498
▁arch	-2499
▁equal	-2500
▁suffix	-2501
tore	-2502
cluded	-2503
zon	-2504
▁present	-2505
ged	-2506
Base	-2507
undle	-2508
▁disable	-2509
rf	-2510
rest	-2511
river	-2512
▁alias	-2513
▁because	-2514
▁Permission	-2515
uture	-2516
▁bank	-2517
:%	-2518
▁edges	-2519
required	-2520
condition	-2521
▁fix	-2522
groups	-2523
▁being	-2524
▁zero	-2525
▁branch	-2526
channel	-2527
▁categ	-2528
▁validation	-2529
uted	-2530
known	-2531
▁defaults	-2532
box	-2533
raises	-2534
Request	-2535
▁reverse	-2536
ES	-2537
▁dumps	-2538
▁functions	-2539
sort	-2540
▁she	-2541
▁done	-2542
▁duration	-2543
NAME	-2544
▁Col	-2545
false	-2546
nly	-2547
exist	-2548
split	-2549
▁wrapper	-2550
▁authentic	-2551
gor	-2552
▁Ch	-2553
gine	-2554
▁both	-2555
▁dimension	-2556
'''	-2557
ling	-2558
alcul	-2559
▁assume	-2560
▁environ	-2561
exceptions	-2562
▁remo	-2563
Content	-2564
▁subprocess	-2565
By	-2566
▁since	-2567
▁possible	-2568
▁"{	-2569
rm	-2570
▁dot	-2571
enied	-2572
▁layer	-2573
unit	-2574
▁supp	-2575
\\	-2576
wd	-2577
nodes	-2578
▁indent	-2579
▁six	-2580
▁{}"	-2581
▁public	-2582
ward	-2583
▁gre	-2584
delete	-2585
▁Config	-2586
redential	-2587
▁structure	-2588
▁fra	-2589
termin	-2590
next	-2591
etwork	-2592
ceback	-2593
▁motif	-2594
parameters	-2595
▁pd	-2596
▁methods	-2597
▁ts	-2598
▁rest	-2599
▁comment	-2600
Valid	-2601
▁dele	-2602
supports	-2603
std	-2604
member	-2605
offset	-2606
▁scipy	-2607
▁NotFound	-2608
▁fmt	-2609
service	-2610
try	-2611
rences	-2612
cimal	-2613
▁As	-2614
ually	-2615
▁writ	-2616
▁Valid	-2617
▁ndarray	-2618
▁Implemented	-2619
Sh	-2620
comple	-2621
sor	-2622
}/	-2623
▁cannot	-2624
▁exclude	-2625
▁transaction	-2626
IO	-2627
▁Z	-2628
▁doesn	-2629
▁coordinates	-2630
▁sol	-2631
▁Element	-2632
)"	-2633
go	-2634
actory	-2635
termine	-2636
▁iterable	-2637
▁vis	-2638
▁grid	-2639
headers	-2640
▁String	-2641
tags	-2642
▁vert	-2643
alt	-2644
▁imp	-2645
▁such	-2646
Denied	-2647
▁','	-2648
▁ang	-2649
▁words	-2650
step	-2651
▁look	-2652
pattern	-2653
IL	-2654
Class	-2655
exec	-2656
mark	-2657
▁analys	-2658
▁destination	-2659
cii	-2660
sure	-2661
▁under	-2662
▁region	-2663
▁features	-2664
jang	-2665
▁hyd	-2666
stems	-2667
▁inputs	-2668
late	-2669
▁atom	-2670
▁high	-2671
shot	-2672
{}"	-2673
lish	-2674
ia	-2675
ader	-2676
Instance	-2677
▁attrs	-2678
stats	-2679
project	-2680
objects	-2681
mac	-2682
current	-2683
▁interval	-2684
HE	-2685
▁nest	-2686
af	-2687
Info	-2688
results	-2689
counts	-2690
▁click	-2691
sql	-2692
chron	-2693
full	-2694
▁AWS	-2695
▁move	-2696
▁what	-2697
▁IN	-2698
oint	-2699
annot	-2700
▁OPTION	-2701
▁endswith	-2702
jango	-2703
olute	-2704
▁implement	-2705
her	-2706
way	-2707
ulti	-2708
gorith	-2709
unicode	-2710
▁entries	-2711
▁weights	-2712
▁('	-2713
▁comb	-2714
▁loads	-2715
▁signature	-2716
EX	-2717
AS	-2718
cip	-2719
ament	-2720
▁report	-2721
matrix	-2722
mount	-2723
reads	-2724
▁scheme	-2725
wh	-2726
▁release	-2727
▁art	-2728
▁bucket	-2729
UN	-2730
txt	-2731
Graph	-2732
▁these	-2733
IC	-2734
▁space	-2735
▁kind	-2736
▁Argument	-2737
▁relative	-2738
▁partition	-2739
▁sm	-2740
▁always	-2741
git	-2742
left	-2743
ront	-2744
Index	-2745
columns	-2746
validate	-2747
▁callable	-2748
▁inv	-2749
▁await	-2750
contain	-2751
ystem	-2752
▁Al	-2753
▁keep	-2754
▁install	-2755
tax	-2756
cle	-2757
▁direction	-2758
tail	-2759
python	-2760
ale	-2761
mpt	-2762
body	-2763
▁plt	-2764
Record	-2765
▁could	-2766
▁proces	-2767
▁commands	-2768
style	-2769
sec	-2770
ulation	-2771
▁private	-2772
▁units	-2773
▁updated	-2774
▁bind	-2775
lap	-2776
▁Path	-2777
here	-2778
▁inte	-2779
Parameter	-2780
▁OPTIONAL	-2781
ites	-2782
asure	-2783
Ids	-2784
▁nan	-2785
▁common	-2786
▁drop	-2787
Format	-2788
▁lists	-2789
dic	-2790
▁flags	-2791
User	-2792
▁details	-2793
._	-2794
▁expr	-2795
▁conver	-2796
asic	-2797
▁how	-2798
tered	-2799
cmd	-2800
▁our	-2801
▁play	-2802
stat	-2803
logger	-2804
▁scale	-2805
seconds	-2806
ero	-2807
▁Time	-2808
CHE	-2809
▁"_	-2810
ha	-2811
▁Any	-2812
▁sur	-2813
Version	-2814
napshot	-2815
▁control	-2816
paths	-2817
question	-2818
UB	-2819
target	-2820
▁buffer	-2821
leg	-2822
▁hex	-2823
▁scan	-2824
dt	-2825
~~	-2826
Field	-2827
▁archive	-2828
fp	-2829
▁Qu	-2830
find	-2831
▁cos	-2832
▁until	-2833
▁properties	-2834
np	-2835
ru	-2836
Start	-2837
▁messages	-2838
oid	-2839
GER	-2840
POST	-2841
delta	-2842
series	-2843
▁upload	-2844
▁Example	-2845
sa	-2846
▁App	-2847
▁Comp	-2848
▁cursor	-2849
send	-2850
Count	-2851
score	-2852
▁rout	-2853
select	-2854
▁Num	-2855
▁zone	-2856
▁product	-2857
▁protocol	-2858
sl	-2859
SER	-2860
▁pid	-2861
▁series	-2862
▁decorator	-2863
cursive	-2864
▁fluxes	-2865
licit	-2866
▁When	-2867
▁hydpy	-2868
package	-2869
VE	-2870
ont	-2871
NotFound	-2872
leep	-2873
coord	-2874
▁progress	-2875
asset	-2876
▁volume	-2877
alk	-2878
duce	-2879
Model	-2880
amily	-2881
▁ans	-2882
ended	-2883
▁fill	-2884
=%	-2885
BU	-2886
https	-2887
encode	-2888
▁round	-2889
▁memory	-2890
▁scal	-2891
non	-2892
sequence	-2893
▁et	-2894
▁prior	-2895
▁filters	-2896
Ad	-2897
math	-2898
vars	-2899
▁construct	-2900
IG	-2901
UR	-2902
ilter	-2903
▁lock	-2904
▁weight	-2905
aw	-2906
▁users	-2907
▁indic	-2908
▁multi	-2909
▁tables	-2910
meth	-2911
debug	-2912
pc	-2913
▁bg	-2914
less	-2915
ithub	-2916
utput	-2917
mbed	-2918
formed	-2919
▁batch	-2920
▁entity	-2921
▁stored	-2922
ek	-2923
ght	-2924
stop	-2925
classes	-2926
ntry	-2927
year	-2928
▁'-'	-2929
▁sec	-2930
-%	-2931
arge	-2932
▁begin	-2933
▁occur	-2934
gorithm	-2935
DER	-2936
▁LOG	-2937
▁bits	-2938
vl	-2939
▁You	-2940
ision	-2941
▁selected	-2942
identifier	-2943
▁fin	-2944
▁Other	-2945
ulate	-2946
▁dirname	-2947
redentials	-2948
mod	-2949
tact	-2950
timestamp	-2951
CD	-2952
▁sender	-2953
align	-2954
aries	-2955
▁wave	-2956
▁medi	-2957
erature	-2958
▁provider	-2959
▁Or	-2960
▁dev	-2961
ending	-2962
▁utils	-2963
▁Defaults	-2964
OL	-2965
ross	-2966
▁bot	-2967
Store	-2968
▁tasks	-2969
andas	-2970
uring	-2971
osition	-2972
timeout	-2973
▁transform	-2974
Run	-2975
ole	-2976
▁org	-2977
Table	-2978
▁predi	-2979
▁minimum	-2980
▁internal	-2981
▁threshold	-2982
ilar	-2983
▁requested	-2984
lon	-2985
chronous	-2986
ality	-2987
mazon	-2988
▁against	-2989
MP	-2990
================	-2991
opt	-2992
▁Index	-2993
▁'__	-2994
</	-2995
vec	-2996
▁most	-2997
▁sw	-2998
▁est	-2999
settings	-3000
ef	-3001
events	-3002
▁supports	-3003
can	-3004
pair	-3005
▁https	-3006
▁another	-3007
cols	-3008
docs	-3009
▁numbers	-3010
cls	-3011
grid	-3012
▁perform	-3013
ze	-3014
samples	-3015
exc	-3016
ards	-3017
ROR	-3018
▁flu	-3019
▁OS	-3020
▁would	-3021
]"	-3022
loop	-3023
▁days	-3024
Parser	-3025
▁origin	-3026
language	-3027
▁workflow	-3028
util	-3029
dev	-3030
▁vals	-3031
folder	-3032
▁Remove	-3033
▁ensure	-3034
▁lineno	-3035
▁program	-3036
first	-3037
▁issue	-3038
▁period	-3039
▁support	-3040
▁Function	-3041
He	-3042
stit	-3043
NO	-3044
Val	-3045
faces	-3046
patch	-3047
▁seed	-3048
provider	-3049
fast	-3050
▁ident	-3051
▁primary	-3052
▁storage	-3053
SP	-3054
}.	-3055
just	-3056
filepath	-3057
▁Network	-3058
▁InvalidArgument	-3059
serve	-3060
Per	-3061
cores	-3062
matically	-3063
▁-=	-3064
directory	-3065
requen	-3066
email	-3067
nection	-3068
▁amount	-3069
▁binary	-3070
ias	-3071
ather	-3072
Status	-3073
buffer	-3074
ynam	-3075
IME	-3076
desc	-3077
▁mag	-3078
ystems	-3079
etadata	-3080
▁partial	-3081
▁variant	-3082
▁generated	-3083
Date	-3084
ifest	-3085
public	-3086
▁evalu	-3087
********	-3088
▁category	-3089
▁sep	-3090
▁setup	-3091
▁removed	-3092
EL	-3093
▁>,	-3094
▁needed	-3095
diff	-3096
▁annot	-3097
▁async	-3098
▁['	-3099
Gener	-3100
▁standard	-3101
!"	-3102
▁la	-3103
▁opts	-3104
Code	-3105
def	-3106
iew	-3107
uuid	-3108
Number	-3109
ressed	-3110
▁records	-3111
IS	-3112
TypeId	-3113
DB	-3114
terms	-3115
▁Update	-3116
▁override	-3117
▁distribution	-3118
▁Unimplemented	-3119
course	-3120
strument	-3121
parameter	-3122
Query	-3123
▁disk	-3124
yp	-3125
{}'	-3126
▁NO	-3127
encies	-3128
quires	-3129
LO	-3130
TER	-3131
▁IO	-3132
▁Run	-3133
enu	-3134
idden	-3135
▁reset	-3136
▁finally	-3137
reg	-3138
▁es	-3139
▁sleep	-3140
Le	-3141
utable	-3142
▁constra	-3143
flux	-3144
▁nc	-3145
used	-3146
▁Error	-3147
▁Number	-3148
▁indexes	-3149
save	-3150
▁repe	-3151
▁resol	-3152
comment	-3153
▁profile	-3154
▁vertices	-3155
Len	-3156
boolean	-3157
uble	-3158
▁tri	-3159
ernel	-3160
sired	-3161
▁sets	-3162
gative	-3163
▁pairs	-3164
▁states	-3165
▁additional	-3166
ink	-3167
rate	-3168
atten	-3169
An	-3170
]'	-3171
arm	-3172
lint	-3173
roller	-3174
▁summary	-3175
UM	-3176
ilder	-3177
▁provide	-3178
▁queryset	-3179
▁registered	-3180
vers	-3181
▁hit	-3182
▁way	-3183
Pre	-3184
▁rec	-3185
▁attemp	-3186
orig	-3187
▁vec	-3188
▁poly	-3189
▁neighb	-3190
▁setting	-3191
ipament	-3192
▁changes	-3193
TML	-3194
dify	-3195
oken	-3196
▁cfg	-3197
Param	-3198
release	-3199
Al	-3200
xx	-3201
▁Read	-3202
atform	-3203
▁representing	-3204
izes	-3205
peri	-3206
▁redirect	-3207
FF	-3208
Man	-3209
▁arr	-3210
▁Amazon	-3211
cker	-3212
icle	-3213
rule	-3214
ving	-3215
paces	-3216
▁images	-3217
csv	-3218
▁observ	-3219
▁resources	-3220
tom	-3221
▁fs	-3222
ators	-3223
total	-3224
▁beta	-3225
Or	-3226
RA	-3227
▁draw	-3228
display	-3229
▁bundle	-3230
▁changed	-3231
API	-3232
ond	-3233
ton	-3234
▁".	-3235
semb	-3236
▁Make	-3237
▁math	-3238
remove	-3239
▁delay	-3240
ORM	-3241
Text	-3242
cing	-3243
▁Otherwise	-3244
▁currently	-3245
oices	-3246
▁engine	-3247
▁loaded	-3248
▁compute	-3249
LAN	-3250
▁//	-3251
Size	-3252
chunk	-3253
▁verify	-3254
▁means	-3255
▁dst	-3256
▁isn	-3257
Event	-3258
▁expi	-3259
vs	-3260
▁ep	-3261
inst	-3262
▁cols	-3263
application	-3264
▁Field	-3265
ystemslib	-3266
connection	-3267
uresystemslib	-3268
Py	-3269
ux	-3270
Exist	-3271
escri	-3272
reen	-3273
▁derived	-3274
collection	-3275
ire	-3276
▁(%	-3277
ferences	-3278
resources	-3279
:\	-3280
ensity	-3281
▁slice	-3282
▁termin	-3283
"'	-3284
gt	-3285
▁tr	-3286
▁deploy	-3287
▁library	-3288
▁prepare	-3289
▁cy	-3290
▁da	-3291
atio	-3292
ified	-3293
▁prev	-3294
▁least	-3295
▁related	-3296
▁cert	-3297
▁desired	-3298
escription	-3299
andid	-3300
▁those	-3301
▁supplied	-3302
}}	-3303
ORD	-3304
▁percent	-3305
_{	-3306
ki	-3307
▁ste	-3308
▁tab	-3309
mer	-3310
gent	-3311
▁let	-3312
TH	-3313
show	-3314
▁pkg	-3315
▁pers	-3316
errors	-3317
▁inspect	-3318
▁DataFrame	-3319
▁Pre	-3320
▁widget	-3321
▁successful	-3322
▁tb	-3323
served	-3324
gb	-3325
CON	-3326
land	-3327
▁named	-3328
▁members	-3329
▁modules	-3330
ars	-3331
▁dat	-3332
▁reci	-3333
normal	-3334
hist	-3335
gg	-3336
AGE	-3337
alle	-3338
card	-3339
Update	-3340
▁overwrite	-3341
mbol	-3342
▁feed	-3343
github	-3344
▁known	-3345
▁nested	-3346
▁CPE	-3347
omial	-3348
depend	-3349
▁false	-3350
FO	-3351
▁many	-3352
hook	-3353
▁prop	-3354
▁uses	-3355
hether	-3356
▁sched	-3357
▁deleted	-3358
ook	-3359
vels	-3360
Lookup	-3361
▁master	-3362
www	-3363
▁sq	-3364
▁measure	-3365
interval	-3366
▁assignment	-3367
ness	-3368
▁terms	-3369
cessary	-3370
hes	-3371
▁},	-3372
▁sources	-3373
▁components	-3374
imc	-3375
▁pool	-3376
ache	-3377
make	-3378
▁pick	-3379
units	-3380
▁were	-3381
▁blank	-3382
▁fasta	-3383
sen	-3384
▁starting	-3385
▁formatted	-3386
.'''	-3387
unch	-3388
▁colors	-3389
▁automatically	-3390
Load	-3391
utils	-3392
▁Call	-3393
▁Find	-3394
▁center	-3395
▁installed	-3396
▁cl	-3397
▁angle	-3398
▁shell	-3399
example	-3400
▁classes	-3401
▁Examples	-3402
cc	-3403
legal	-3404
ropri	-3405
long	-3406
ropriate	-3407
▁sessions	-3408
ece	-3409
SO	-3410
▁ds	-3411
Inter	-3412
dices	-3413
Access	-3414
loaded	-3415
▁short	-3416
▁enable	-3417
▁tuples	-3418
▁flat	-3419
▁train	-3420
▁chunks	-3421
▁simple	-3422
SA	-3423
serial	-3424
▁checks	-3425
properties	-3426
▁cat	-3427
▁fore	-3428
import	-3429
▁confi	-3430
▁By	-3431
▁FI	-3432
ases	-3433
▁identity	-3434
▁sentence	-3435
repository	-3436
UE	-3437
lack	-3438
itial	-3439
Result	-3440
cf	-3441
▁csv	-3442
Map	-3443
plugin	-3444
▁absolute	-3445
dx	-3446
ware	-3447
▁Load	-3448
dataset	-3449
▁arrays	-3450
bsException	-3451
dl	-3452
ttp	-3453
▁io	-3454
orld	-3455
▁git	-3456
angle	-3457
▁route	-3458
▁topic	-3459
▁setattr	-3460
ys	-3461
__'	-3462
ascii	-3463
▁rank	-3464
ipamento	-3465
mean	-3466
▁rot	-3467
istent	-3468
▁delta	-3469
Entry	-3470
▁counter	-3471
▁~	-3472
rade	-3473
▁mac	-3474
▁none	-3475
▁Client	-3476
▁describ	-3477
▁encrypt	-3478
▁cub	-3479
▁included	-3480
:"	-3481
▁box	-3482
grees	-3483
Search	-3484
▁transl	-3485
▁manager	-3486
▁Input	-3487
definition	-3488
▁appropriate	-3489
UP	-3490
oot	-3491
ctions	-3492
▁Import	-3493
▁factor	-3494
Iter	-3495
▁via	-3496
branch	-3497
▁representation	-3498
From	-3499
aved	-3500
alculate	-3501
component	-3502
sim	-3503
▁dig	-3504
▁choice	-3505
▁submit	-3506
EN	-3507
▁echo	-3508
uplicate	-3509
has	-3510
rents	-3511
▁PATH	-3512
▁$	-3513
ilt	-3514
rong	-3515
▁admin	-3516
▁incre	-3517
emon	-3518
llegal	-3519
▁greater	-3520
LA	-3521
cli	-3522
agent	-3523
domain	-3524
At	-3525
ga	-3526
▁SQL	-3527
▁uid	-3528
ATION	-3529
strip	-3530
▁cook	-3531
▁expand	-3532
attribute	-3533
▁operator	-3534
als	-3535
imer	-3536
login	-3537
device	-3538
▁owner	-3539
▁Required	-3540
*'	-3541
Obj	-3542
▁ap	-3543
ATA	-3544
hape	-3545
loud	-3546
site	-3547
uous	-3548
▁retry	-3549
ficiency	-3550
▁wrapped	-3551
▁calculate	-3552
Sub	-3553
logy	-3554
▁Spe	-3555
maining	-3556
▁pylint	-3557
▁compile	-3558
reference	-3559
ABLE	-3560
parts	-3561
▁attach	-3562
▁pixels	-3563
!!	-3564
Bank	-3565
alth	-3566
▁question	-3567
▁alignment	-3568
▁recursive	-3569
▁background	-3570
Source	-3571
ARN	-3572
tion	-3573
▁esc	-3574
light	-3575
▁Response	-3576
Ext	-3577
join	-3578
pose	-3579
secret	-3580
mag	-3581
▁SE	-3582
▁tz	-3583
bove	-3584
lers	-3585
▁Cor	-3586
ROM	-3587
none	-3588
tty	-3589
board	-3590
▁astype	-3591
fra	-3592
zero	-3593
▁power	-3594
account	-3595
lengths	-3596
requency	-3597
▁'$	-3598
▁pr	-3599
aign	-3600
lished	-3601
remote	-3602
▁permissions	-3603
cd	-3604
arr	-3605
▁'#	-3606
▁Be	-3607
View	-3608
lign	-3609
ender	-3610
attributes	-3611
▁normalize	-3612
▁relationship	-3613
Bin	-3614
PAR	-3615
rain	-3616
words	-3617
thread	-3618
interface	-3619
▁segments	-3620
Te	-3621
rum	-3622
sens	-3623
▁even	-3624
mapping	-3625
▁Method	-3626
sha	-3627
▁Build	-3628
▁ctypes	-3629
▁generic	-3630
▁positive	-3631
zy	-3632
icks	-3633
unic	-3634
colors	-3635
▁did	-3636
▁sqrt	-3637
▁Model	-3638
ancel	-3639
▁during	-3640
▁future	-3641
▁Base	-3642
▁ones	-3643
▁above	-3644
upported	-3645
▁Whether	-3646
▁identifi	-3647
={	-3648
tr	-3649
▁Node	-3650
curity	-3651
invalid	-3652
▁Convert	-3653
ice	-3654
cluding	-3655
▁",	-3656
auss	-3657
come	-3658
▁yaml	-3659
commit	-3660
▁similar	-3661
▁platform	-3662
▁determine	-3663
Admin	-3664
users	-3665
cision	-3666
▁special	-3667
rb	-3668
vas	-3669
LECT	-3670
vlan	-3671
▁asyn	-3672
▁lang	-3673
▁digest	-3674
▁export	-3675
▁refresh	-3676
▁execution	-3677
▁necessary	-3678
Do	-3679
sat	-3680
▁mig	-3681
edges	-3682
▁needs	-3683
▁reads	-3684
▁fh	-3685
Vari	-3686
ouse	-3687
▁"{}	-3688
eries	-3689
ometry	-3690
document	-3691
▁retrieve	-3692
▁implementation	-3693
!'	-3694
jor	-3695
▁sym	-3696
mediate	-3697
▁detect	-3698
Assessment	-3699
uff	-3700
This	-3701
ropy	-3702
▁typ	-3703
custom	-3704
fit	-3705
▁sampl	-3706
▁counts	-3707
▁prompt	-3708
ED	-3709
ultip	-3710
▁argv	-3711
▁null	-3712
▁trig	-3713
▁basename	-3714
MS	-3715
Tag	-3716
▁etc	-3717
▁Only	-3718
indices	-3719
▁DB	-3720
▁'_'	-3721
scale	-3722
▁elem	-3723
▁face	-3724
resses	-3725
▁flatten	-3726
▁algorithm	-3727
▁statement	-3728
(\	-3729
cade	-3730
▁warnings	-3731
PC	-3732
lso	-3733
center	-3734
▁embed	-3735
ral	-3736
syn	-3737
addr	-3738
lper	-3739
Trans	-3740
▁along	-3741
periment	-3742
▁reshape	-3743
▁REQUIRED	-3744
▁iterator	-3745
cript	-3746
▁bins	-3747
distance	-3748
▁collect	-3749
▁Resource	-3750
▁iteritems	-3751
cp	-3752
oms	-3753
▁Code	-3754
factor	-3755
Command	-3756
▁answer	-3757
▁candid	-3758
INT	-3759
▁nt	-3760
▁rv	-3761
▁cached	-3762
variable	-3763
▁HD	-3764
▁He	-3765
cons	-3766
▁redis	-3767
cording	-3768
▁raised	-3769
▁own	-3770
▁slug	-3771
dp	-3772
▁mu	-3773
FORM	-3774
conn	-3775
▁':'	-3776
▁coin	-3777
▁repr	-3778
replace	-3779
ASE	-3780
auto	-3781
sample	-3782
profile	-3783
▁working	-3784
▁obs	-3785
Proxy	-3786
ogram	-3787
▁spect	-3788
▁takes	-3789
counter	-3790
aris	-3791
flag	-3792
▁lvl	-3793
mooth	-3794
regex	-3795
urses	-3796
▁Hand	-3797
weight	-3798
Dis	-3799
End	-3800
dest	-3801
▁mak	-3802
▁metric	-3803
username	-3804
▁IOError	-3805
▁traceback	-3806
rl	-3807
irt	-3808
help	-3809
▁late	-3810
▁assumed	-3811
▁modified	-3812
AND	-3813
Cont	-3814
role	-3815
▁calc	-3816
▁strict	-3817
pk	-3818
Dir	-3819
▁mut	-3820
▁ord	-3821
bound	-3822
▁axes	-3823
▁side	-3824
istics	-3825
▁expect	-3826
▁hostname	-3827
Spe	-3828
Names	-3829
press	-3830
▁bounds	-3831
children	-3832
Call	-3833
ally	-3834
▁All	-3835
▁calls	-3836
▁effect	-3837
▁reason	-3838
llegalState	-3839
SH	-3840
ongo	-3841
▁below	-3842
etrieve	-3843
LETE	-3844
scope	-3845
ndarray	-3846
▁Arguments	-3847
▁credentials	-3848
Po	-3849
Input	-3850
hierarchy	-3851
▁converted	-3852
abs	-3853
Sets	-3854
Length	-3855
▁links	-3856
▁calling	-3857
PUT	-3858
prob	-3859
▁cod	-3860
▁lex	-3861
holder	-3862
▁Start	-3863
▁inner	-3864
▁abspath	-3865
relationship	-3866
+)	-3867
hour	-3868
close	-3869
▁HTML	-3870
success	-3871
ines	-3872
chema	-3873
+'	-3874
▁Ac	-3875
▁too	-3876
▁unpack	-3877
▁directly	-3878
PO	-3879
▁exact	-3880
Str	-3881
velo	-3882
yaml	-3883
trace	-3884
▁Also	-3885
lastic	-3886
▁secret	-3887
▁Content	-3888
▁matched	-3889
gz	-3890
sw	-3891
foo	-3892
ctor	-3893
orary	-3894
lain	-3895
wrap	-3896
chain	-3897
▁IllegalState	-3898
App	-3899
▁MA	-3900
▁sen	-3901
▁Iter	-3902
single	-3903
▁patch	-3904
▁stage	-3905
▁escape	-3906
ationError	-3907
scrib	-3908
▁kernel	-3909
▁keywords	-3910
sys	-3911
▁nu	-3912
most	-3913
▁GET	-3914
▁norm	-3915
▁rules	-3916
Message	-3917
container	-3918
LookupSession	-3919
▁Max	-3920
▁sat	-3921
▁rate	-3922
▁Trans	-3923
▁numer	-3924
▁genome	-3925
ão	-3926
Page	-3927
fail	-3928
▁Can	-3929
▁bar	-3930
▁yet	-3931
irtual	-3932
Manager	-3933
▁Generate	-3934
▁deep	-3935
Stream	-3936
ignore	-3937
entries	-3938
▁encoded	-3939
▁filtered	-3940
▁requires	-3941
▁Te	-3942
ough	-3943
ural	-3944
▁Tra	-3945
▁bad	-3946
▁low	-3947
▁Auth	-3948
▁tran	-3949
▁vars	-3950
▁setdefault	-3951
▁fd	-3952
funcs	-3953
antity	-3954
mpaign	-3955
▁noise	-3956
vnetwork	-3957
opy	-3958
▁buf	-3959
▁Query	-3960
▁logical	-3961
▁manifest	-3962
Of	-3963
On	-3964
TO	-3965
vo	-3966
ends	-3967
▁Ext	-3968
ERROR	-3969
riteria	-3970
Parameters	-3971
▁gradebook	-3972
ado	-3973
exp	-3974
iki	-3975
img	-3976
expr	-3977
miss	-3978
span	-3979
complete	-3980
▁according	-3981
atype	-3982
month	-3983
▁edit	-3984
Remove	-3985
▁isfile	-3986
bits	-3987
height	-3988
▁radius	-3989
FILE	-3990
otes	-3991
▁Dis	-3992
▁small	-3993
elements	-3994
▁Dictionary	-3995
hy	-3996
dom	-3997
const	-3998
▁urls	-3999
▁walk	-4000
Filter	-4001
▁loader	-4002
▁history	-4003
Bu	-4004
oo	-4005
}\	-4006
▁POST	-4007
driver	-4008
▁front	-4009
changed	-4010
▁modifi	-4011
Optional	-4012
▁enabled	-4013
▁determin	-4014
ene	-4015
▁"'	-4016
lask	-4017
Could	-4018
▁curr	-4019
▁curve	-4020
▁steps	-4021
▁outfile	-4022
▁tx	-4023
dapt	-4024
▁free	-4025
▁might	-4026
gradebook	-4027
environment	-4028
>`	-4029
Off	-4030
Wra	-4031
unc	-4032
arison	-4033
ceived	-4034
▁scalar	-4035
▁locator	-4036
▁explicit	-4037
Configuration	-4038
".	-4039
▁cel	-4040
endar	-4041
▁quote	-4042
ocument	-4043
▁static	-4044
▁md	-4045
▁tar	-4046
allow	-4047
cated	-4048
▁push	-4049
▁concat	-4050
▁priority	-4051
configuration	-4052
byte	-4053
havi	-4054
irst	-4055
Array	-4056
gments	-4057
▁channels	-4058
'\	-4059
vip	-4060
▁"."	-4061
▁alt	-4062
imate	-4063
▁Creates	-4064
ZE	-4065
Regex	-4066
ilent	-4067
lambda	-4068
Metadata	-4069
▁connected	-4070
bl	-4071
sid	-4072
PATH	-4073
Part	-4074
writ	-4075
coder	-4076
▁Http	-4077
▁safe	-4078
▁util	-4079
▁etree	-4080
▁arange	-4081
▁minutes	-4082
PA	-4083
Ass	-4084
HER	-4085
]):	-4086
dec	-4087
rep	-4088
sep	-4089
▁gl	-4090
scan	-4091
▁Dict	-4092
▁once	-4093
▁hours	-4094
▁optim	-4095
▁latest	-4096
Hel	-4097
Pass	-4098
Test	-4099
calc	-4100
categ	-4101
Process	-4102
modified	-4103
Mo	-4104
pad	-4105
▁\\	-4106
▁mk	-4107
SION	-4108
hing	-4109
▁IDs	-4110
▁Pop	-4111
states	-4112
▁media	-4113
▁motifs	-4114
repo	-4115
Match	-4116
attrs	-4117
codes	-4118
empty	-4119
▁negative	-4120
MC	-4121
js	-4122
▁qs	-4123
rant	-4124
▁cla	-4125
alias	-4126
Convert	-4127
▁blocks	-4128
▁formats	-4129
ives	-4130
lies	-4131
rase	-4132
side	-4133
allel	-4134
▁LOGGER	-4135
AdminSession	-4136
cogn	-4137
REQUIRED	-4138
▁publish	-4139
▁freq	-4140
upload	-4141
▁usage	-4142
features	-4143
learning	-4144
▁transition	-4145
aa	-4146
cfg	-4147
she	-4148
ues	-4149
▁FA	-4150
▁ps	-4151
fetch	-4152
▁Inter	-4153
▁received	-4154
alf	-4155
▁::	-4156
specifi	-4157
contents	-4158
▁checked	-4159
▁IndexError	-4160
▁notification	-4161
BUG	-4162
ret	-4163
▁ec	-4164
wave	-4165
sters	-4166
visible	-4167
▁shared	-4168
▁urllib	-4169
ibration	-4170
▁forward	-4171
▁analysis	-4172
▁registry	-4173
▁authentication	-4174
AP	-4175
▁Web	-4176
▁docs	-4177
▁Parse	-4178
cluster	-4179
arguments	-4180
cule	-4181
tour	-4182
iddle	-4183
vidual	-4184
▁saved	-4185
gers	-4186
wait	-4187
ptime	-4188
ridge	-4189
▁mach	-4190
▁verb	-4191
▁Format	-4192
generate	-4193
▁gr	-4194
aily	-4195
bins	-4196
ense	-4197
vide	-4198
times	-4199
exists	-4200
ferred	-4201
storage	-4202
fl	-4203
job	-4204
Token	-4205
aving	-4206
window	-4207
▁backup	-4208
.\	-4209
web	-4210
▁peak	-4211
ptions	-4212
ownload	-4213
▁respect	-4214
RF	-4215
radi	-4216
▁"--	-4217
▁leg	-4218
▁pyh	-4219
CHEMA	-4220
▁Test	-4221
▁glob	-4222
▁simp	-4223
istype	-4224
details	-4225
wrapper	-4226
▁define	-4227
▁padding	-4228
threshold	-4229
edis	-4230
▁dset	-4231
▁span	-4232
$'	-4233
▁fg	-4234
▁fall	-4235
period	-4236
integer	-4237
plotlib	-4238
▁actions	-4239
▁threads	-4240
conditions	-4241
▁collections	-4242
().	-4243
rer	-4244
▁sn	-4245
▁bro	-4246
▁chr	-4247
▁figure	-4248
signature	-4249
▁analysistype	-4250
MM	-4251
see	-4252
ival	-4253
large	-4254
expected	-4255
▁remaining	-4256
▁ImportError	-4257
gy	-4258
▁PI	-4259
usive	-4260
▁FROM	-4261
convert	-4262
Attribute	-4263
▁configure	-4264
hs	-4265
▁##	-4266
chor	-4267
insert	-4268
iteral	-4269
▁flush	-4270
▁creating	-4271
▁fastaccess	-4272
=[	-4273
Up	-4274
▁cd	-4275
pool	-4276
▁Each	-4277
▁less	-4278
▁rand	-4279
▁Group	-4280
namespace	-4281
▁instrument	-4282
▁ev	-4283
FORMAT	-4284
atches	-4285
▁nothing	-4286
deredDict	-4287
bg	-4288
DIR	-4289
Out	-4290
ftime	-4291
where	-4292
▁Output	-4293
▁ignored	-4294
▁documentation	-4295
.%	-4296
genus	-4297
▁diag	-4298
▁layout	-4299
▁modify	-4300
▁directories	-4301
If	-4302
US	-4303
div	-4304
...'	-4305
▁big	-4306
Agent	-4307
▁plan	-4308
▁roll	-4309
▁complex	-4310
DataInstance	-4311
Ac	-4312
OP	-4313
_'	-4314
wn	-4315
SET	-4316
▁spl	-4317
Function	-4318
▁reading	-4319
▁written	-4320
DataFrame	-4321
nsupported	-4322
▁selection	-4323
▁timedelta	-4324
ao	-4325
tk	-4326
ced	-4327
ips	-4328
HTTP	-4329
icro	-4330
▁deg	-4331
oring	-4332
▁well	-4333
▁still	-4334
stitution	-4335
▁something	-4336
CS	-4337
Su	-4338
}{	-4339
System	-4340
rowser	-4341
▁isdir	-4342
amo	-4343
eder	-4344
Sequence	-4345
▁permission	-4346
▁?	-4347
All	-4348
Auto	-4349
▁ren	-4350
defaults	-4351
▁descript	-4352
src	-4353
ATED	-4354
Level	-4355
ckets	-4356
ifier	-4357
▁dynam	-4358
▁speed	-4359
ryption	-4360
weights	-4361
register	-4362
▁compare	-4363
orization	-4364
].	-4365
MENT	-4366
cached	-4367
▁coords	-4368
property	-4369
GE	-4370
sig	-4371
icip	-4372
oper	-4373
poch	-4374
▁enc	-4375
Parse	-4376
multi	-4377
▁NOTE	-4378
▁packet	-4379
▁dimensions	-4380
▁simulation	-4381
▁ok	-4382
stru	-4383
Child	-4384
links	-4385
▁average	-4386
▁resolve	-4387
▁subclass	-4388
▁versions	-4389
ctionaries	-4390
iver	-4391
safe	-4392
metric	-4393
▁theta	-4394
defined	-4395
▁processes	-4396
▁returning	-4397
sol	-4398
ited	-4399
▁Try	-4400
▁nor	-4401
▁sudo	-4402
▁Array	-4403
encoding	-4404
▁contact	-4405
apt	-4406
Only	-4407
▁mgr	-4408
peimc	-4409
stract	-4410
Default	-4411
records	-4412
▁worker	-4413
▁Command	-4414
▁applied	-4415
▁pyhpeimc	-4416
▁processed	-4417
▁seen	-4418
decode	-4419
▁positions	-4420
DF	-4421
LL	-4422
cao	-4423
ider	-4424
ined	-4425
layer	-4426
▁allows	-4427
▁closed	-4428
▁separate	-4429
assignment	-4430
GU	-4431
▁logs	-4432
▁Tuple	-4433
variance	-4434
ternative	-4435
▁controller	-4436
})	-4437
cred	-4438
owel	-4439
verts	-4440
Params	-4441
global	-4442
▁klass	-4443
▁recent	-4444
>"	-4445
TC	-4446
Block	-4447
ointer	-4448
▁phase	-4449
registry	-4450
▁],	-4451
city	-4452
▁sock	-4453
Context	-4454
ibility	-4455
Objective	-4456
(?	-4457
AME	-4458
bro	-4459
cepts	-4460
tasks	-4461
stdout	-4462
▁Image	-4463
▁security	-4464
dn	-4465
acy	-4466
any	-4467
▁ER	-4468
done	-4469
scal	-4470
rency	-4471
▁cloud	-4472
ficient	-4473
▁decimal	-4474
▁conditions	-4475
hn	-4476
▁rc	-4477
Task	-4478
▁mar	-4479
Cannot	-4480
▁xpath	-4481
relation	-4482
ParameterError	-4483
][	-4484
sq	-4485
COM	-4486
home	-4487
▁got	-4488
uting	-4489
▁Date	-4490
▁ndim	-4491
▁Event	-4492
▁avoid	-4493
LOC	-4494
lict	-4495
clean	-4496
limiter	-4497
private	-4498
▁strftime	-4499
▁difference	-4500
▁Environment	-4501
tab	-4502
free	-4503
separ	-4504
▁conv	-4505
unique	-4506
members	-4507
`)	-4508
tw	-4509
ulated	-4510
▁deployment	-4511
EM	-4512
ACK	-4513
ared	-4514
urls	-4515
created	-4516
ilities	-4517
We	-4518
▁turn	-4519
scheme	-4520
▁Cloud	-4521
▁activ	-4522
▁inside	-4523
download	-4524
▁OSError	-4525
▁degrees	-4526
▁specification	-4527
▁Mo	-4528
fits	-4529
▁amb	-4530
redis	-4531
setup	-4532
▁area	-4533
▁sens	-4534
OK	-4535
PS	-4536
▁{{	-4537
quis	-4538
fasta	-4539
▁dates	-4540
▁creates	-4541
▁normalized	-4542
.)	-4543
gon	-4544
▁ls	-4545
▁Ass	-4546
Align	-4547
▁peer	-4548
SCHEMA	-4549
▁shift	-4550
?'	-4551
_%	-4552
▁<<	-4553
Regist	-4554
▁Write	-4555
*.	-4556
aut	-4557
uler	-4558
▁Sign	-4559
variables	-4560
▁OrderedDict	-4561
Act	-4562
LOG	-4563
rag	-4564
greg	-4565
pNum	-4566
stub	-4567
▁rev	-4568
cloud	-4569
▁Work	-4570
▁cover	-4571
Address	-4572
▁rename	-4573
Pa	-4574
eff	-4575
HERE	-4576
oriz	-4577
repr	-4578
▁Given	-4579
▁ports	-4580
aussian	-4581
▁surface	-4582
▁packages	-4583
▁pipeline	-4584
MO	-4585
orn	-4586
~~~~	-4587
iente	-4588
strings	-4589
▁entire	-4590
▁recipi	-4591
▁retrie	-4592
sage	-4593
after	-4594
extra	-4595
udent	-4596
▁Open	-4597
Logger	-4598
rectory	-4599
▁compat	-4600
▁Description	-4601
sm	-4602
wb	-4603
번호	-4604
ipv	-4605
mar	-4606
omic	-4607
alpha	-4608
lower	-4609
▁soup	-4610
▁basic	-4611
▁cross	-4612
dicator	-4613
rollment	-4614
▁campaign	-4615
▁temperature	-4616
▁vid	-4617
▁fixed	-4618
▁whose	-4619
initial	-4620
▁pretty	-4621
▁attempt	-4622
▁external	-4623
▁Networkapi	-4624
▁probability	-4625
ogle	-4626
tack	-4627
Column	-4628
▁cause	-4629
▁useful	-4630
▁choices	-4631
▁activity	-4632
STR	-4633
car	-4634
tmp	-4635
▁Bo	-4636
ores	-4637
▁addr	-4638
▁writer	-4639
▁findall	-4640
▁unknown	-4641
nk	-4642
▁nl	-4643
▁mis	-4644
▁pur	-4645
▁slot	-4646
▁vlan	-4647
▁daemon	-4648
▁outputs	-4649
▁predict	-4650
▁creation	-4651
▁datasets	-4652
;'	-4653
YY	-4654
ALI	-4655
▁EX	-4656
ifact	-4657
short	-4658
▁bond	-4659
▁happ	-4660
▁tool	-4661
ivalent	-4662
modules	-4663
▁NOT	-4664
▁perm	-4665
random	-4666
▁partic	-4667
commands	-4668
▁virtual	-4669
▁snapshot	-4670
▁definitions	-4671
pec	-4672
▁"/"	-4673
▁mole	-4674
urrent	-4675
▁shutil	-4676
▁patterns	-4677
▁preserve	-4678
▁TO	-4679
matches	-4680
▁django	-4681
▁Integer	-4682
▁dependencies	-4683
▁dictionaries	-4684
Rel	-4685
▁PY	-4686
Tree	-4687
anti	-4688
▁IDD	-4689
▁proc	-4690
▁fails	-4691
▁organ	-4692
generator	-4693
▁precision	-4694
▁'[	-4695
▁utc	-4696
▁cast	-4697
actions	-4698
deg	-4699
ever	-4700
▁tax	-4701
shift	-4702
▁sync	-4703
▁world	-4704
▁levels	-4705
▁CorpNum	-4706
available	-4707
▁fraction	-4708
Connection	-4709
kw	-4710
ince	-4711
▁pagin	-4712
Warning	-4713
▁OR	-4714
▁cap	-4715
▁pat	-4716
▁emit	-4717
▁hook	-4718
▁dicts	-4719
▁reply	-4720
▁relation	-4721
▁individual	-4722
▁particular	-4723
NS	-4724
lev	-4725
uses	-4726
Range	-4727
▁agent	-4728
▁mapped	-4729
>,	-4730
EST	-4731
ably	-4732
kind	-4733
▁capt	-4734
▁good	-4735
▁encrypted	-4736
▁comparison	-4737
▁asynchronous	-4738
SL	-4739
tract	-4740
▁tail	-4741
itation	-4742
▁symbol	-4743
▁services	-4744
▁including	-4745
XX	-4746
bjct	-4747
▁AND	-4748
▁Tag	-4749
eature	-4750
▁behavi	-4751
▁conversion	-4752
irs	-4753
lex	-4754
SIZE	-4755
▁bal	-4756
▁cwd	-4757
Image	-4758
posta	-4759
▁Auto	-4760
▁menu	-4761
▁wraps	-4762
▁basestring	-4763
]]	-4764
`'	-4765
ii	-4766
wm	-4767
dele	-4768
qual	-4769
▁inf	-4770
▁player	-4771
▁actually	-4772
▁communic	-4773
▁deepcopy	-4774
pix	-4775
fill	-4776
Grade	-4777
▁Stop	-4778
append	-4779
ection	-4780
enabled	-4781
install	-4782
▁parsing	-4783
▁frequency	-4784
PER	-4785
▁Save	-4786
▁runs	-4787
▁chrom	-4788
▁genus	-4789
product	-4790
▁manage	-4791
▁article	-4792
PRE	-4793
upo	-4794
▁At	-4795
Exec	-4796
ully	-4797
▁Over	-4798
Unknown	-4799
Collection	-4800
DD	-4801
pu	-4802
rev	-4803
ves	-4804
▁So	-4805
cell	-4806
gene	-4807
based	-4808
flags	-4809
▁week	-4810
socket	-4811
▁makes	-4812
▁taken	-4813
▁wrong	-4814
correct	-4815
existing	-4816
extension	-4817
dr	-4818
dirs	-4819
▁occ	-4820
hosts	-4821
▁later	-4822
▁Instance	-4823
CA	-4824
ENT	-4825
▁nb	-4826
▁ss	-4827
osity	-4828
Unable	-4829
▁Result	-4830
▁Initial	-4831
▁Unicode	-4832
▁parents	-4833
▁assigned	-4834
▁requirements	-4835
ITS	-4836
Pri	-4837
▁ve	-4838
▁IMC	-4839
▁pot	-4840
▁squ	-4841
mbols	-4842
trics	-4843
▁built	-4844
requests	-4845
▁machine	-4846
Component	-4847
▁configured	-4848
▁operations	-4849
aws	-4850
prop	-4851
feder	-4852
▁core	-4853
▁jobs	-4854
▁made	-4855
missing	-4856
▁locations	-4857
tx	-4858
▁*=	-4859
ADER	-4860
▁'*'	-4861
▁dep	-4862
Values	-4863
pandas	-4864
vector	-4865
courses	-4866
▁hidden	-4867
▁configs	-4868
▁NoAccess	-4869
DO	-4870
alo	-4871
mas	-4872
▁LI	-4873
▁ms	-4874
▁na	-4875
steps	-4876
frames	-4877
tables	-4878
bill	-4879
uess	-4880
▁cut	-4881
▁red	-4882
chemy	-4883
confi	-4884
Server	-4885
▁There	-4886
ificate	-4887
▁itself	-4888
hex	-4889
▁ii	-4890
▁sl	-4891
▁PIPE	-4892
▁seqs	-4893
▁cases	-4894
Dataset	-4895
▁driver	-4896
▁intervals	-4897
▁measurement	-4898
EC	-4899
\'	-4900
aps	-4901
▁"#	-4902
▁HE	-4903
imal	-4904
▁doct	-4905
▁enum	-4906
▁seek	-4907
digest	-4908
images	-4909
▁chars	-4910
Wrapper	-4911
▁coinid	-4912
▁statistics	-4913
Be	-4914
}:	-4915
▁cr	-4916
▁Does	-4917
▁appe	-4918
▁qual	-4919
Change	-4920
▁cells	-4921
▁sigma	-4922
ression	-4923
▁reader	-4924
▁contract	-4925
▁datatype	-4926
akes	-4927
onal	-4928
ools	-4929
this	-4930
uest	-4931
utor	-4932
▁works	-4933
monitor	-4934
▁double	-4935
▁asarray	-4936
▁interpol	-4937
▁'['	-4938
tached	-4939
logging	-4940
▁problem	-4941
VAL	-4942
▁mem	-4943
▁know	-4944
▁magn	-4945
▁First	-4946
▁subset	-4947
itespace	-4948
▁Version	-4949
▁testing	-4950
dimension	-4951
▁candidate	-4952
▁filenames	-4953
▁separator	-4954
eds	-4955
Find	-4956
Sign	-4957
Work	-4958
▁URI	-4959
▁Text	-4960
include	-4961
▁around	-4962
▁overlap	-4963
entication	-4964
dap	-4965
dat	-4966
iet	-4967
ssh	-4968
▁'='	-4969
taken	-4970
views	-4971
▁hits	-4972
ipment	-4973
signal	-4974
▁Search	-4975
▁neighbors	-4976
UID	-4977
▁gu	-4978
lists	-4979
▁canvas	-4980
bind	-4981
apping	-4982
suffix	-4983
control	-4984
▁targets	-4985
▁trigger	-4986
▁schedule	-4987
▁timezone	-4988
/"	-4989
ffi	-4990
lip	-4991
▁pt	-4992
▁sun	-4993
force	-4994
green	-4995
iling	-4996
feature	-4997
endpoint	-4998
▁coordinate	-4999
▁au	-5000
▁aln	-5001
numpy	-5002
▁pandas	-5003
▁occurred	-5004
▁Connection	-5005
▁matplotlib	-5006
cut	-5007
▁cb	-5008
Line	-5009
imat	-5010
ragma	-5011
▁country	-5012
▁vectors	-5013
alignment	-5014
▁latitude	-5015
CK	-5016
GI	-5017
cert	-5018
gtKey	-5019
▁game	-5020
▁DEBUG	-5021
▁trace	-5022
Service	-5023
▁Server	-5024
finition	-5025
Bo	-5026
'),	-5027
ALL	-5028
Dec	-5029
Ver	-5030
pid	-5031
enum	-5032
star	-5033
sents	-5034
SELECT	-5035
▁ravel	-5036
keyword	-5037
▁converter	-5038
▁processing	-5039
Max	-5040
STA	-5041
inv	-5042
..."	-5043
onts	-5044
rupt	-5045
ueue	-5046
▁New	-5047
enary	-5048
imple	-5049
▁Must	-5050
bucket	-5051
▁devices	-5052
▁concaten	-5053
▁serializer	-5054
Arn	-5055
▁idf	-5056
otype	-5057
▁coef	-5058
▁tick	-5059
▁water	-5060
▁family	-5061
▁obtain	-5062
▁policy	-5063
▁screen	-5064
`:	-5065
ba	-5066
PRO	-5067
With	-5068
▁COM	-5069
▁ipv	-5070
batch	-5071
second	-5072
backend	-5073
▁increment	-5074
tz	-5075
cel	-5076
oct	-5077
sole	-5078
▁Sup	-5079
▁trun	-5080
mitted	-5081
▁digits	-5082
▁rstrip	-5083
▁updates	-5084
▁parallel	-5085
▁longitude	-5086
>\	-5087
CF	-5088
NG	-5089
sn	-5090
eve	-5091
▁fm	-5092
cond	-5093
▁ssh	-5094
Hierarchy	-5095
▁handlers	-5096
▁constraint	-5097
Min	-5098
▁cv	-5099
live	-5100
▁HDX	-5101
▁hyper	-5102
vertices	-5103
▁species	-5104
▁Generated	-5105
MI	-5106
VI	-5107
ife	-5108
tic	-5109
days	-5110
game	-5111
pawn	-5112
▁bus	-5113
merge	-5114
indows	-5115
inputs	-5116
▁comma	-5117
▁marker	-5118
▁callsign	-5119
▁interpre	-5120
▁molecule	-5121
▁resulting	-5122
▁synchronous	-5123
authorization	-5124
pfp	-5125
▁aa	-5126
logs	-5127
plus	-5128
wiki	-5129
▁eas	-5130
creds	-5131
▁home	-5132
▁mime	-5133
scores	-5134
▁ratio	-5135
rations	-5136
transform	-5137
▁serialize	-5138
Implemented	-5139
cr	-5140
SCRI	-5141
leaf	-5142
▁due	-5143
Output	-5144
versed	-5145
▁Popen	-5146
ultiple	-5147
▁cookie	-5148
▁subdom	-5149
precated	-5150
revision	-5151
▁indexed	-5152
▁validator	-5153
hood	-5154
utoff	-5155
▁tile	-5156
▁recur	-5157
▁;	-5158
ios	-5159
allen	-5160
sktop	-5161
▁'{}'	-5162
▁Sets	-5163
▁etag	-5164
Custom	-5165
family	-5166
▁outer	-5167
▁Message	-5168
▁queries	-5169
▁temporary	-5170
▁extensions	-5171
ks	-5172
dio	-5173
sis	-5174
▁DO	-5175
▁salt	-5176
sorted	-5177
▁Table	-5178
▁three	-5179
▁plugins	-5180
abilities	-5181
▁argparse	-5182
▁formatter	-5183
▁placeholder	-5184
So	-5185
Mdl	-5186
ony	-5187
▁/=	-5188
inte	-5189
refs	-5190
Write	-5191
ARNING	-5192
master	-5193
phrase	-5194
▁appro	-5195
allenge	-5196
▁pragma	-5197
▁unless	-5198
instances	-5199
▁experiment	-5200
▁constraints	-5201
▁dbsException	-5202
():	-5203
▁"<	-5204
hest	-5205
nsure	-5206
pages	-5207
coords	-5208
▁linear	-5209
▁reduce	-5210
****************	-5211
ummy	-5212
▁One	-5213
izing	-5214
▁inds	-5215
factory	-5216
▁silent	-5217
database	-5218
▁includes	-5219
▁NotImplemented	-5220
GB	-5221
bn	-5222
css	-5223
▁(`	-5224
Cache	-5225
cover	-5226
iving	-5227
▁REST	-5228
▁WORD	-5229
▁WHERE	-5230
updated	-5231
▁locale	-5232
▁general	-5233
bot	-5234
dit	-5235
hem	-5236
tar	-5237
war	-5238
▁xs	-5239
ario	-5240
▁End	-5241
▁ssl	-5242
▁fits	-5243
▁adapt	-5244
▁adding	-5245
▁criteria	-5246
▁histogram	-5247
▁resolution	-5248
▁connections	-5249
▁Configuration	-5250
CRE	-5251
mem	-5252
▁'(	-5253
▁nx	-5254
uter	-5255
▁Item	-5256
DELETE	-5257
▁Usage	-5258
cb	-5259
Job	-5260
proc	-5261
found	-5262
▁awsc	-5263
▁clip	-5264
▁quiz	-5265
utation	-5266
▁Service	-5267
▁Calculate	-5268
IVE	-5269
▁tre	-5270
atter	-5271
track	-5272
▁font	-5273
coming	-5274
xlarge	-5275
payload	-5276
▁UserID	-5277
▁pprint	-5278
category	-5279
▁quality	-5280
▁dispatch	-5281
▁dependency	-5282
]:	-5283
imp	-5284
▁vo	-5285
amma	-5286
▁Gets	-5287
Header	-5288
before	-5289
▁genes	-5290
▁magic	-5291
▁maked	-5292
compute	-5293
▁decrypt	-5294
▁immediate	-5295
▁UN	-5296
anel	-5297
▁CON	-5298
lices	-5299
direction	-5300
▁finished	-5301
▁Rb	-5302
some	-5303
▁cid	-5304
▁cir	-5305
allet	-5306
tokens	-5307
clusive	-5308
▁Handle	-5309
▁bottom	-5310
▁moment	-5311
▁please	-5312
▁raises	-5313
▁identify	-5314
▁calculated	-5315
▁splitlines	-5316
notification	-5317
mig	-5318
▁Is	-5319
▁How	-5320
▁den	-5321
▁Copy	-5322
llable	-5323
▁fully	-5324
▁leave	-5325
related	-5326
▁regular	-5327
▁sections	-5328
ws	-5329
Lib	-5330
ker	-5331
real	-5332
▁tup	-5333
▁frames	-5334
uplicates	-5335
▁equivalent	-5336
Can	-5337
FIG	-5338
hip	-5339
ird	-5340
▁Po	-5341
▁um	-5342
Meta	-5343
dump	-5344
exit	-5345
reed	-5346
GUAGE	-5347
wards	-5348
▁Pass	-5349
charge	-5350
pacity	-5351
▁watch	-5352
▁switch	-5353
dc	-5354
cid	-5355
▁%(	-5356
▁am	-5357
▁eq	-5358
Func	-5359
JSON	-5360
laces	-5361
▁Meta	-5362
▁apps	-5363
▁Process	-5364
▁duplicate	-5365
▁explicitly	-5366
IF	-5367
SQL	-5368
Port	-5369
▁pix	-5370
arest	-5371
clear	-5372
ested	-5373
prior	-5374
▁Send	-5375
Device	-5376
Timeout	-5377
▁middle	-5378
override	-5379
▁accepted	-5380
▁awsclient	-5381
▁getLogger	-5382
eL	-5383
gc	-5384
ane	-5385
stor	-5386
▁hard	-5387
▁quot	-5388
latest	-5389
report	-5390
running	-5391
ventory	-5392
▁compress	-5393
Repository	-5394
gl	-5395
ECT	-5396
▁'"	-5397
▁xy	-5398
cial	-5399
▁SIG	-5400
activ	-5401
chars	-5402
▁Unit	-5403
▁card	-5404
▁onto	-5405
▁codon	-5406
▁deriv	-5407
▁comments	-5408
CR	-5409
TR	-5410
URE	-5411
era	-5412
fmt	-5413
▁"[	-5414
itter	-5415
lying	-5416
perty	-5417
deploy	-5418
▁Color	-5419
VERSION	-5420
segment	-5421
threads	-5422
▁executed	-5423
iso	-5424
Zone	-5425
policy	-5426
▁issub	-5427
▁Delete	-5428
▁respon	-5429
▁ordered	-5430
▁iteration	-5431
composition	-5432
CL	-5433
And	-5434
pts	-5435
▁CD	-5436
▁On	-5437
given	-5438
tainer	-5439
▁piece	-5440
decimal	-5441
subject	-5442
▁adjust	-5443
▁radians	-5444
▁delimiter	-5445
temperature	-5446
▁subscription	-5447
but	-5448
ket	-5449
KEYS	-5450
▁bas	-5451
▁css	-5452
adcast	-5453
utdown	-5454
▁MgtKey	-5455
▁contig	-5456
▁ranges	-5457
Location	-5458
fm	-5459
▁EC	-5460
ific	-5461
wers	-5462
▁eps	-5463
neighb	-5464
▁Graph	-5465
partition	-5466
▁checking	-5467
▁checksum	-5468
▁urlparse	-5469
▁executable	-5470
Authorization	-5471
NP	-5472
Ta	-5473
ELD	-5474
▁Job	-5475
▁adj	-5476
▁ann	-5477
▁nick	-5478
Action	-5479
attemp	-5480
ontsize	-5481
▁Column	-5482
▁repeat	-5483
Directory	-5484
components	-5485
▁descriptor	-5486
CODE	-5487
▁bel	-5488
▁phi	-5489
caling	-5490
ranges	-5491
region	-5492
syntax	-5493
You	-5494
pop	-5495
▁Api	-5496
eLife	-5497
posed	-5498
loader	-5499
▁These	-5500
sources	-5501
▁merged	-5502
duration	-5503
▁contrib	-5504
▁rotation	-5505
▁migration	-5506
Ref	-5507
▁AR	-5508
atar	-5509
▁give	-5510
vertex	-5511
▁proto	-5512
▁stdin	-5513
coordin	-5514
history	-5515
▁detail	-5516
▁solver	-5517
▁terminal	-5518
((	-5519
II	-5520
acl	-5521
▁Ad	-5522
▁Ge	-5523
push	-5524
▁cas	-5525
Asset	-5526
ading	-5527
istic	-5528
itext	-5529
▁pull	-5530
dating	-5531
▁ready	-5532
formats	-5533
parsers	-5534
▁produce	-5535
Reference	-5536
ttributes	-5537
▁abstract	-5538
▁compressed	-5539
km	-5540
lt	-5541
▁=>	-5542
``.*	-5543
lems	-5544
ourn	-5545
▁","	-5546
▁THE	-5547
▁lar	-5548
▁win	-5549
istant	-5550
▁share	-5551
▁border	-5552
▁cublas	-5553
▁smooth	-5554
▁Specifi	-5555
▁factory	-5556
▁Received	-5557
▁monomial	-5558
▁hierarchy	-5559
▁responses	-5560
▁retrieved	-5561
▁templates	-5562
PU	-5563
SD	-5564
\"	-5565
▁|=	-5566
CESS	-5567
expi	-5568
▁Act	-5569
▁Equ	-5570
matic	-5571
▁quad	-5572
▁tell	-5573
ighest	-5574
▁blast	-5575
▁clone	-5576
▁letter	-5577
Variable	-5578
▁Popbill	-5579
▁splitext	-5580
▁translate	-5581
:`.	-5582
ric	-5583
sgi	-5584
TIME	-5585
▁hol	-5586
reason	-5587
offered	-5588
▁references	-5589
NotFoundError	-5590
▁substitution	-5591
ee	-5592
Tmp	-5593
dct	-5594
▁em	-5595
▁ur	-5596
▁wf	-5597
yles	-5598
▁tip	-5599
atial	-5600
vance	-5601
Method	-5602
▁Filter	-5603
▁dynamic	-5604
▁routine	-5605
▁makedirs	-5606
▁docstring	-5607
atom	-5608
lets	-5609
▁rem	-5610
engine	-5611
scribe	-5612
▁roles	-5613
listRegex	-5614
▁sampling	-5615
▁documents	-5616
equipamento	-5617
ace	-5618
dian	-5619
▁sid	-5620
resol	-5621
▁Page	-5622
▁colo	-5623
▁atoms	-5624
▁anchor	-5625
▁aspect	-5626
▁inline	-5627
comments	-5628
▁started	-5629
▁anything	-5630
▁replacement	-5631
br	-5632
','	-5633
)``	-5634
▁dx	-5635
many	-5636
quot	-5637
▁"-"	-5638
▁Dec	-5639
▁END	-5640
Stats	-5641
▁ascii	-5642
ilename	-5643
plugins	-5644
▁readline	-5645
▁variance	-5646
▁completed	-5647
▁indicating	-5648
▁Unsupported	-5649
▁concatenate	-5650
ART	-5651
▁cum	-5652
atrix	-5653
▁blue	-5654
▁rect	-5655
▁major	-5656
▁micro	-5657
Factory	-5658
▁cancel	-5659
▁doctest	-5660
">	-5661
rad	-5662
▁CO	-5663
JECT	-5664
erce	-5665
esca	-5666
poly	-5667
CTION	-5668
quote	-5669
▁browser	-5670
ffff	-5671
frac	-5672
▁IPv	-5673
▁"{}"	-5674
render	-5675
▁chart	-5676
▁light	-5677
▁scores	-5678
▁reversed	-5679
listRegexes	-5680
▁encryption	-5681
▁observation	-5682
AA	-5683
pg	-5684
bad	-5685
mes	-5686
tip	-5687
uch	-5688
▁AB	-5689
rank	-5690
▁cer	-5691
▁lam	-5692
Types	-5693
quent	-5694
▁Used	-5695
▁Will	-5696
stderr	-5697
▁Print	-5698
▁tests	-5699
▁Should	-5700
▁legend	-5701
▁station	-5702
▁mappings	-5703
▁everything	-5704
▁represents	-5705
fc	-5706
Prf	-5707
geo	-5708
hit	-5709
ulk	-5710
▁txt	-5711
elist	-5712
equal	-5713
spect	-5714
▁Adds	-5715
▁never	-5716
▁vault	-5717
▁whole	-5718
▁docker	-5719
▁helper	-5720
LANGUAGE	-5721
▁attached	-5722
▁entities	-5723
best	-5724
ences	-5725
Reader	-5726
▁visit	-5727
execute	-5728
extract	-5729
imation	-5730
partial	-5731
▁simply	-5732
▁consist	-5733
fd	-5734
']'.	-5735
Back	-5736
▁INT	-5737
break	-5738
fname	-5739
pixel	-5740
▁half	-5741
idered	-5742
static	-5743
▁margin	-5744
▁Compute	-5745
▁capture	-5746
▁prevent	-5747
Calculate	-5748
▁evaluate	-5749
kit	-5750
phi	-5751
▁clu	-5752
▁ioc	-5753
final	-5754
cesses	-5755
▁bases	-5756
▁notes	-5757
devices	-5758
summary	-5759
usually	-5760
▁Regist	-5761
▁trying	-5762
segments	-5763
▁newline	-5764
Validated	-5765
▁Retrieve	-5766
▁spectrum	-5767
▁Objective	-5768
oly	-5769
▁{"	-5770
▁rdf	-5771
dient	-5772
▁Part	-5773
▁codes	-5774
▁finish	-5775
▁calendar	-5776
▁geometry	-5777
▁distances	-5778
Tc	-5779
ORT	-5780
inf	-5781
▁mid	-5782
▁band	-5783
require	-5784
specific	-5785
▁properly	-5786
▁determined	-5787
▁observations	-5788
vm	-5789
{'	-5790
sci	-5791
▁IS	-5792
diag	-5793
lide	-5794
▁"__	-5795
▁'"'	-5796
▁Com	-5797
▁Mark	-5798
▁live	-5799
▁poll	-5800
▁guess	-5801
▁thing	-5802
▁pickle	-5803
▁rather	-5804
GraphVal	-5805
▁JSONClient	-5806
▁serialized	-5807
▁setGraphVal	-5808
hi	-5809
ups	-5810
▁Ne	-5811
▁ft	-5812
▁gzip	-5813
scalar	-5814
grading	-5815
▁infile	-5816
▁decoded	-5817
▁compound	-5818
▁ordering	-5819
ised	-5820
▁egg	-5821
average	-5822
▁masked	-5823
▁routing	-5824
▁waiting	-5825
▁whitespace	-5826
▁represented	-5827
▁intersection	-5828
sd	-5829
').	-5830
Url	-5831
tick	-5832
▁geo	-5833
▁eval	-5834
▁scen	-5835
▁Source	-5836
NotExist	-5837
▁certain	-5838
▁contour	-5839
▁Sequence	-5840
▁CPEComponent	-5841
qs	-5842
ned	-5843
png	-5844
▁</	-5845
▁Bu	-5846
pars	-5847
motif	-5848
▁Task	-5849
▁gets	-5850
Policy	-5851
warning	-5852
▁tzinfo	-5853
▁Document	-5854
▁customer	-5855
▁neighbor	-5856
▁initialize	-5857
*"	-5858
``:	-5859
den	-5860
ssl	-5861
▁PO	-5862
Temp	-5863
▁MAX	-5864
Assign	-5865
Handle	-5866
Schema	-5867
ateway	-5868
lihood	-5869
▁Notes	-5870
▁layers	-5871
▁notify	-5872
sessions	-5873
▁potential	-5874
'])	-5875
CDF	-5876
TED	-5877
▁AN	-5878
Build	-5879
decor	-5880
ollow	-5881
▁gran	-5882
▁song	-5883
Loader	-5884
common	-5885
▁Series	-5886
▁reload	-5887
▁spaces	-5888
BaseError	-5889
▁Traceback	-5890
▁ValidationError	-5891
yd	-5892
URI	-5893
bam	-5894
ops	-5895
▁jd	-5896
acter	-5897
strap	-5898
▁alph	-5899
▁trip	-5900
▁person	-5901
▁xrange	-5902
▁metavar	-5903
Generator	-5904
functions	-5905
serialize	-5906
▁specifying	-5907
▁successfully	-5908
yy	-5909
roy	-5910
▁TH	-5911
Local	-5912
orter	-5913
▁idfo	-5914
bundle	-5915
calcul	-5916
gether	-5917
percent	-5918
▁prediction	-5919
dbsException	-5920
lasticsearch	-5921
uc	-5922
ção	-5923
ayer	-5924
comb	-5925
high	-5926
sync	-5927
▁MOC	-5928
▁aut	-5929
ached	-5930
stall	-5931
▁large	-5932
▁sever	-5933
Section	-5934
▁Calcul	-5935
▁Please	-5936
activity	-5937
Description	-5938
▁considered	-5939
alg	-5940
win	-5941
▁dc	-5942
Json	-5943
Mode	-5944
▁Git	-5945
▁Min	-5946
▁ear	-5947
------	-5948
finite	-5949
uation	-5950
▁byref	-5951
▁offer	-5952
▁vowel	-5953
▁Custom	-5954
▁varNum	-5955
cognized	-5956
snapshot	-5957
▁cleaned	-5958
▁handling	-5959
▁performed	-5960
▁annotation	-5961
▁constructor	-5962
SK	-5963
efs	-5964
zen	-5965
lose	-5966
pipe	-5967
ensor	-5968
velop	-5969
▁kill	-5970
▁very	-5971
Delete	-5972
Please	-5973
▁expon	-5974
▁orbit	-5975
accounts	-5976
▁forecast	-5977
▁previously	-5978
▁SH	-5979
ATCH	-5980
anit	-5981
▁Bad	-5982
▁gap	-5983
choice	-5984
▁isnan	-5985
▁Django	-5986
▁orient	-5987
progress	-5988
▁Windows	-5989
▁sending	-5990
▁Template	-5991
▁constant	-5992
▁exchange	-5993
sidSession	-5994
▁respective	-5995
ui	-5996
▁ix	-5997
abet	-5998
sect	-5999
skip	-6000
tile	-6001
west	-6002
▁cnt	-6003
▁hsp	-6004
▁rgb	-6005
ratio	-6006
▁ance	-6007
SCRIPT	-6008
helper	-6009
filters	-6010
present	-6011
▁listen	-6012
▁scopes	-6013
▁inplace	-6014
▁fallback	-6015
Identifier	-6016
▁attachment	-6017
▁downloaded	-6018
▁transcript	-6019
▁Ver	-6020
▁hum	-6021
-----	-6022
Point	-6023
aders	-6024
▁href	-6025
onical	-6026
▁solve	-6027
Iteration	-6028
▁XMLError	-6029
▁artifact	-6030
expression	-6031
▁contained	-6032
_"	-6033
Ter	-6034
rgb	-6035
▁ny	-6036
ench	-6037
href	-6038
jobs	-6039
oked	-6040
seqs	-6041
Print	-6042
▁beam	-6043
▁Allow	-6044
▁Block	-6045
▁ERROR	-6046
▁produ	-6047
orizont	-6048
▁topics	-6049
▁desktop	-6050
▁disabled	-6051
▁verbosity	-6052
▁optionally	-6053
▁SA	-6054
▁dct	-6055
▁excl	-6056
supported	-6057
▁alternative	-6058
▁HttpResponse	-6059
MD	-6060
SR	-6061
mg	-6062
qa	-6063
MPL	-6064
cos	-6065
lag	-6066
▁dy	-6067
▁tf	-6068
▁"_"	-6069
▁dry	-6070
▁iso	-6071
cessed	-6072
▁-----	-6073
▁shard	-6074
Cluster	-6075
gateway	-6076
▁Domain	-6077
▁enough	-6078
Download	-6079
▁metrics	-6080
▁offsets	-6081
▁receive	-6082
▁combined	-6083
federation	-6084
▁addresses	-6085
▁itertools	-6086
▁transport	-6087
Tra	-6088
cod	-6089
dot	-6090
▁Pi	-6091
▁xi	-6092
hits	-6093
phot	-6094
▁tpl	-6095
front	-6096
▁Exec	-6097
▁copi	-6098
▁trim	-6099
amount	-6100
semble	-6101
▁FASTA	-6102
Options	-6103
▁syntax	-6104
callable	-6105
▁hashlib	-6106
▁inverse	-6107
▁passing	-6108
BO	-6109
inds	-6110
▁cho	-6111
▁adds	-6112
▁kwds	-6113
▁flask	-6114
Connect	-6115
gregate	-6116
▁monitor	-6117
▁sampler	-6118
▁Metadata	-6119
▁conflict	-6120
▁solution	-6121
▁extracted	-6122
▁DataBaseError	-6123
▁lc	-6124
slug	-6125
ector	-6126
▁Some	-6127
▁gist	-6128
closed	-6129
variant	-6130
▁derive	-6131
▁negate	-6132
▁titles	-6133
▁Session	-6134
▁aliases	-6135
▁estimat	-6136
connected	-6137
▁StringIO	-6138
▁depending	-6139
▁recipient	-6140
)]	-6141
ij	-6142
(),	-6143
▁'@	-6144
▁cc	-6145
▁suc	-6146
LOGGER	-6147
Module	-6148
actors	-6149
itable	-6150
orator	-6151
simple	-6152
▁throw	-6153
viation	-6154
▁retval	-6155
messages	-6156
▁numeric	-6157
▁instanti	-6158
▁published	-6159
▁webdriver	-6160
▁enrollment	-6161
+"	-6162
IST	-6163
MAP	-6164
ras	-6165
tle	-6166
DATE	-6167
beat	-6168
park	-6169
numer	-6170
▁With	-6171
▁mesh	-6172
▁mobj	-6173
strict	-6174
▁cycle	-6175
chedule	-6176
unknown	-6177
▁caller	-6178
channels	-6179
▁Current	-6180
▁Dataset	-6181
▁lengths	-6182
sensitive	-6183
statement	-6184
▁wavelengths	-6185
*)	-6186
ai	-6187
cwd	-6188
rec	-6189
yin	-6190
area	-6191
unct	-6192
▁Cal	-6193
ticks	-6194
▁cmap	-6195
▁prom	-6196
isease	-6197
itchen	-6198
▁pysat	-6199
Initial	-6200
▁marked	-6201
Elements	-6202
Retrieve	-6203
mplitude	-6204
▁balance	-6205
▁exactly	-6206
▁loading	-6207
dependent	-6208
Definition	-6209
▁nr	-6210
drop	-6211
ital	-6212
uide	-6213
▁KEY	-6214
▁aid	-6215
signed	-6216
▁timer	-6217
itories	-6218
support	-6219
▁Signal	-6220
▁season	-6221
▁literal	-6222
▁Converts	-6223
▁fragment	-6224
▁deprecated	-6225
TF	-6226
dm	-6227
ov	-6228
hat	-6229
▁'&	-6230
USER	-6231
lahn	-6232
pick	-6233
plan	-6234
▁att	-6235
async	-6236
isode	-6237
▁able	-6238
▁book	-6239
compat	-6240
failed	-6241
reader	-6242
sensus	-6243
▁Multi	-6244
▁sbjct	-6245
▁affect	-6246
queryset	-6247
▁listdir	-6248
▁indicates	-6249
UC	-6250
ja	-6251
▁Le	-6252
▁Up	-6253
CONT	-6254
osen	-6255
▁COL	-6256
Files	-6257
observ	-6258
Missing	-6259
archive	-6260
choices	-6261
logical	-6262
▁higher	-6263
▁wallet	-6264
▁handled	-6265
templates	-6266
▁incoming	-6267
▁probably	-6268
▁authenticated	-6269
회원	-6270
New	-6271
eri	-6272
fos	-6273
cify	-6274
▁Man	-6275
added	-6276
▁Vari	-6277
linked	-6278
▁decla	-6279
alchemy	-6280
ranches	-6281
▁better	-6282
▁cutoff	-6283
ambiente	-6284
compress	-6285
internal	-6286
▁Keyword	-6287
▁equation	-6288
▁Determine	-6289
▁dataframe	-6290
▁effective	-6291
▁interfaces	-6292
AI	-6293
WA	-6294
hu	-6295
END	-6296
rot	-6297
▁Qt	-6298
▁br	-6299
▁ri	-6300
Root	-6301
Save	-6302
Send	-6303
apply	-6304
meent	-6305
reset	-6306
▁Union	-6307
Builder	-6308
jectory	-6309
otstrap	-6310
▁signed	-6311
▁iterate	-6312
questions	-6313
▁indicate	-6314
▁integers	-6315
▁stripped	-6316
▁issubclass	-6317
px	-6318
uz	-6319
wl	-6320
▁dr	-6321
DATA	-6322
beta	-6323
▁qry	-6324
aster	-6325
daily	-6326
ctools	-6327
olders	-6328
written	-6329
▁appear	-6330
▁health	-6331
versions	-6332
▁interest	-6333
▁resolved	-6334
antification	-6335
▁parameterstep	-6336
?"	-6337
OF	-6338
={}	-6339
bre	-6340
cum	-6341
inx	-6342
▁mt	-6343
draw	-6344
lang	-6345
▁nav	-6346
ADERS	-6347
crete	-6348
usage	-6349
vault	-6350
▁dirs	-6351
fficient	-6352
▁pending	-6353
▁writing	-6354
Formatter	-6355
▁Assessment	-6356
dependencies	-6357
'))	-6358
cra	-6359
ini	-6360
mis	-6361
WORD	-6362
derer	-6363
digit	-6364
inder	-6365
Remote	-6366
gration	-6367
▁Module	-6368
▁happen	-6369
▁longer	-6370
published	-6371
▁languages	-6372
PR	-6373
cm	-6374
lv	-6375
Uni	-6376
adj	-6377
edi	-6378
▁dn	-6379
inux	-6380
norm	-6381
roid	-6382
▁MET	-6383
ategy	-6384
dtype	-6385
predi	-6386
blocks	-6387
covery	-6388
ribute	-6389
Control	-6390
deleted	-6391
failure	-6392
straints	-6393
▁Extract	-6394
▁signals	-6395
▁behavior	-6396
▁particip	-6397
▁replaced	-6398
▁together	-6399
validation	-6400
TS	-6401
wsgi	-6402
▁cip	-6403
▁pwm	-6404
▁team	-6405
memory	-6406
▁cores	-6407
▁Ensure	-6408
▁things	-6409
▁aligned	-6410
▁console	-6411
▁creator	-6412
BE	-6413
DA	-6414
bb	-6415
'],	-6416
hdx	-6417
two	-6418
Desc	-6419
cook	-6420
mant	-6421
anded	-6422
owner	-6423
serts	-6424
▁NAME	-6425
allowed	-6426
methods	-6427
▁issues	-6428
▁imported	-6429
▁submission	-6430
▁StopIteration	-6431
rd	-6432
cub	-6433
ptr	-6434
▁cf	-6435
▁sv	-6436
▁RET	-6437
▁UTC	-6438
notes	-6439
props	-6440
ailure	-6441
lapsed	-6442
ssible	-6443
thresh	-6444
▁epoch	-6445
Specifi	-6446
▁confirm	-6447
▁predicate	-6448
▁covariance	-6449
FC	-6450
moc	-6451
xes	-6452
▁cad	-6453
▁plenary	-6454
▁linspace	-6455
▁tempfile	-6456
▁separated	-6457
▁translation	-6458
'}	-6459
bum	-6460
pem	-6461
▁td	-6462
URCE	-6463
cise	-6464
ffic	-6465
▁Gen	-6466
▁ask	-6467
▁har	-6468
▁leaf	-6469
ipping	-6470
▁mkdir	-6471
▁nargs	-6472
▁union	-6473
DEFAULT	-6474
verbose	-6475
▁Checks	-6476
▁retries	-6477
▁servers	-6478
▁trailing	-6479
▁immediately	-6480
ges	-6481
▁FL	-6482
▁ce	-6483
▁cp	-6484
▁hp	-6485
▁mp	-6486
▁ol	-6487
▁rm	-6488
Open	-6489
week	-6490
▁SSL	-6491
datas	-6492
delay	-6493
erred	-6494
phinx	-6495
vered	-6496
agraph	-6497
iguous	-6498
issues	-6499
ularity	-6500
▁having	-6501
▁getting	-6502
sequences	-6503
▁consider	-6504
▁training	-6505
transaction	-6506
▁percentile	-6507
distribution	-6508
)`	-6509
;"	-6510
[:	-6511
rem	-6512
▁OK	-6513
▁`~	-6514
anis	-6515
▁nmb	-6516
conds	-6517
dates	-6518
which	-6519
django	-6520
double	-6521
letion	-6522
outine	-6523
▁Token	-6524
▁aggreg	-6525
▁pointer	-6526
▁scaling	-6527
orizontal	-6528
▁transfer	-6529
Alignments	-6530
structions	-6531
▁functools	-6532
▁positional	-6533
▁calculation	-6534
"]	-6535
OB	-6536
Pub	-6537
UNT	-6538
ATOR	-6539
Hist	-6540
▁ISO	-6541
▁pay	-6542
▁sdp	-6543
erson	-6544
▁dummy	-6545
▁minor	-6546
prepare	-6547
sertion	-6548
iterable	-6549
▁Boolean	-6550
▁fontsize	-6551
▁populate	-6552
/#	-6553
BY	-6554
()`	-6555
Cre	-6556
dri	-6557
▁'^	-6558
▁fc	-6559
▁sr	-6560
naQu	-6561
plat	-6562
▁'+'	-6563
using	-6564
Helper	-6565
▁doing	-6566
Feature	-6567
Pattern	-6568
brocade	-6569
refresh	-6570
▁chains	-6571
▁launch	-6572
▁linalg	-6573
▁broadcast	-6574
▁decorated	-6575
())	-6576
ARY	-6577
FIX	-6578
ORY	-6579
hmm	-6580
Role	-6581
objs	-6582
▁Pri	-6583
▁flo	-6584
TYPES	-6585
analy	-6586
▁invo	-6587
▁mail	-6588
▁stim	-6589
ceiver	-6590
detail	-6591
▁vhost	-6592
Results	-6593
▁Change	-6594
▁Target	-6595
▁limits	-6596
construct	-6597
▁expanduser	-6598
▁certificate	-6599
LS	-6600
Nao	-6601
pdf	-6602
▁Av	-6603
▁bs	-6604
ocab	-6605
▁'#'	-6606
▁Syn	-6607
ngine	-6608
theta	-6609
▁Line	-6610
▁guid	-6611
▁lazy	-6612
binary	-6613
peting	-6614
volume	-6615
▁crypt	-6616
▁pages	-6617
▁become	-6618
packages	-6619
▁Context	-6620
▁central	-6621
▁combine	-6622
▁cookies	-6623
CC	-6624
WN	-6625
cu	-6626
▁팝	-6627
buf	-6628
▁("	-6629
Make	-6630
note	-6631
▁div	-6632
▁sky	-6633
Reads	-6634
▁prog	-6635
Creates	-6636
▁design	-6637
▁clusters	-6638
▁hexdigest	-6639
▁calibration	-6640
=(	-6641
FS	-6642
XT	-6643
LED	-6644
OUT	-6645
rms	-6646
▁ho	-6647
tein	-6648
▁mol	-6649
Redis	-6650
atoms	-6651
route	-6652
rozen	-6653
watch	-6654
▁Cont	-6655
▁Uses	-6656
▁blob	-6657
escape	-6658
ournal	-6659
▁quiet	-6660
▁sizes	-6661
descript	-6662
hostname	-6663
▁Parameter	-6664
▁readGroup	-6665
EE	-6666
ITH	-6667
MIN	-6668
Msg	-6669
REN	-6670
hel	-6671
▁ON	-6672
icon	-6673
Color	-6674
issue	-6675
under	-6676
zones	-6677
▁Fast	-6678
▁vide	-6679
ention	-6680
▁nonce	-6681
▁sheet	-6682
▁Specifies	-6683
▁combination	-6684
languageTypeId	-6685
/.	-6686
CI	-6687
cla	-6688
pat	-6689
▁AS	-6690
!!!!	-6691
LOCK	-6692
Over	-6693
▁pin	-6694
▁pip	-6695
▁buff	-6696
▁fpath	-6697
enience	-6698
dictionary	-6699
▁specifies	-6700
▁describing	-6701
%(	-6702
FN	-6703
nc	-6704
__"	-6705
ico	-6706
▁NC	-6707
llab	-6708
vest	-6709
▁bug	-6710
▁who	-6711
▁para	-6712
eError	-6713
tailed	-6714
▁Email	-6715
▁Store	-6716
▁catch	-6717
crement	-6718
▁symbols	-6719
▁beginning	-6720
▁pagination	-6721
▁underlying	-6722
formatTypeId	-6723
scriptTypeId	-6724
▁compression	-6725
Ne	-6726
.__	-6727
NOT	-6728
bet	-6729
pot	-6730
▁mx	-6731
ased	-6732
▁idd	-6733
etCDF	-6734
media	-6735
▁price	-6736
minimum	-6737
▁Stream	-6738
▁across	-6739
▁lstrip	-6740
▁recomm	-6741
Required	-6742
▁foreign	-6743
▁uniform	-6744
▁observed	-6745
OsidSession	-6746
▁namespaces	-6747
Relationship	-6748
CP	-6749
]+	-6750
ka	-6751
Web	-6752
nan	-6753
MODE	-6754
axes	-6755
▁dri	-6756
▁tau	-6757
iming	-6758
means	-6759
▁DATA	-6760
▁bbox	-6761
verify	-6762
ysical	-6763
▁abort	-6764
▁black	-6765
▁spawn	-6766
astropy	-6767
program	-6768
▁square	-6769
original	-6770
priority	-6771
▁closest	-6772
▁inserted	-6773
▁strptime	-6774
HI	-6775
nn	-6776
([[	-6777
▁팝빌	-6778
ecef	-6779
lify	-6780
▁-->	-6781
▁Now	-6782
cular	-6783
fastq	-6784
▁cube	-6785
▁uint	-6786
future	-6787
hidden	-6788
▁Stack	-6789
▁ambry	-6790
itelist	-6791
▁degree	-6792
▁median	-6793
▁minute	-6794
▁categories	-6795
▁replication	-6796
)\	-6797
ULE	-6798
pet	-6799
▁CS	-6800
▁GL	-6801
feed	-6802
inct	-6803
tons	-6804
▁FIX	-6805
▁Wra	-6806
ional	-6807
▁Plot	-6808
▁cond	-6809
▁ctxt	-6810
vanced	-6811
Variant	-6812
limited	-6813
straint	-6814
▁TestIO	-6815
▁button	-6816
▁projection	-6817
▁^	-6818
ULL	-6819
sel	-6820
▁VM	-6821
▁rx	-6822
Rule	-6823
opts	-6824
▁VAL	-6825
▁cra	-6826
Break	-6827
major	-6828
power	-6829
MPLATE	-6830
ornado	-6831
encoded	-6832
▁native	-6833
▁utcnow	-6834
Generate	-6835
Register	-6836
▁smaller	-6837
▁workers	-6838
separated	-6839
▁inventory	-6840
▁duplicates	-6841
->	-6842
OS	-6843
AML	-6844
MIT	-6845
cdf	-6846
▁pb	-6847
ball	-6848
oute	-6849
▁cov	-6850
▁lic	-6851
ancer	-6852
aring	-6853
iline	-6854
repos	-6855
sizes	-6856
▁Dist	-6857
▁fold	-6858
▁Mongo	-6859
▁cntxt	-6860
▁today	-6861
hemical	-6862
publish	-6863
operator	-6864
patterns	-6865
▁outside	-6866
▁attempts	-6867
permission	-6868
FP	-6869
FT	-6870
Fn	-6871
td	-6872
Hub	-6873
▁cm	-6874
ixed	-6875
lier	-6876
mult	-6877
▁'?'	-6878
rices	-6879
riend	-6880
▁dims	-6881
Widget	-6882
radius	-6883
▁gamma	-6884
▁hosts	-6885
Network	-6886
▁several	-6887
▁weighted	-6888
▁consistent	-6889
▁dd	-6890
▁inc	-6891
▁sel	-6892
topic	-6893
train	-6894
urity	-6895
▁FITS	-6896
▁pars	-6897
Option	-6898
conver	-6899
levels	-6900
▁Class	-6901
NaoExist	-6902
▁patient	-6903
Operation	-6904
▁detected	-6905
▁resposta	-6906
▁Identifier	-6907
NaoExisteError	-6908
▁interpolation	-6909
,)	-6910
rn	-6911
文件	-6912
CEF	-6913
EXT	-6914
Int	-6915
ava	-6916
sur	-6917
▁MO	-6918
Char	-6919
orth	-6920
rules	-6921
vided	-6922
IdList	-6923
▁enter	-6924
▁grant	-6925
▁quick	-6926
▁resid	-6927
umption	-6928
▁Script	-6929
▁integr	-6930
Activity	-6931
workflow	-6932
▁Maximum	-6933
struction	-6934
▁computed	-6935
▁excluded	-6936
▁filesystem	-6937
:.	-6938
kg	-6939
doi	-6940
pus	-6941
▁ys	-6942
)"""	-6943
Adds	-6944
Args	-6945
▁far	-6946
Parent	-6947
median	-6948
▁coeff	-6949
builder	-6950
ecurity	-6951
▁outdir	-6952
▁recipe	-6953
clusters	-6954
manifest	-6955
▁invoked	-6956
▁Download	-6957
▁iterations	-6958
*\	-6959
cio	-6960
SCII	-6961
clip	-6962
pert	-6963
▁Exp	-6964
▁asc	-6965
alect	-6966
upper	-6967
CONFIG	-6968
Target	-6969
chunks	-6970
▁Takes	-6971
▁Using	-6972
Compute	-6973
Template	-6974
▁reached	-6975
structure	-6976
▁examples	-6977
▁identical	-6978
pb	-6979
Cor	-6980
squ	-6981
tor	-6982
▁mi	-6983
bolic	-6984
▁webs	-6985
attach	-6986
docker	-6987
parsed	-6988
▁house	-6989
library	-6990
handlers	-6991
▁Location	-6992
▁ancestor	-6993
▁estimate	-6994
ailability	-6995
interfaces	-6996
▁intensity	-6997
FL	-6998
GO	-6999
pm	-7000
Com	-7001
Exp	-7002
oll	-7003
▁hi	-7004
tool	-7005
▁Hel	-7006
▁VER	-7007
▁VPC	-7008
Multi	-7009
begin	-7010
erial	-7011
taint	-7012
▁basis	-7013
▁errno	-7014
▁xmlns	-7015
▁highest	-7016
▁correctly	-7017
▁annotations	-7018
▁authenticate	-7019
▁ArgumentParser	-7020
tn	-7021
/{}	-7022
UST	-7023
Use	-7024
▁La	-7025
▁Rc	-7026
menu	-7027
orph	-7028
poll	-7029
slot	-7030
▁sta	-7031
aking	-7032
▁maps	-7033
▁wild	-7034
indent	-7035
▁going	-7036
▁props	-7037
▁Schema	-7038
external	-7039
▁Perform	-7040
▁occured	-7041
▁listener	-7042
▁Reference	-7043
▁constants	-7044
BR	-7045
ji	-7046
ARD	-7047
Dep	-7048
ali	-7049
enc	-7050
Plot	-7051
READ	-7052
more	-7053
▁Rel	-7054
▁VLAN	-7055
Select	-7056
motifs	-7057
▁daily	-7058
ascript	-7059
enotype	-7060
▁Either	-7061
▁larger	-7062
▁really	-7063
▁tolist	-7064
▁adapter	-7065
▁descend	-7066
normalize	-7067
▁Validate	-7068
▁magnitude	-7069
▁substitutions	-7070
Ip	-7071
Ra	-7072
Any	-7073
UND	-7074
illi	-7075
ldap	-7076
▁sto	-7077
grupo	-7078
itors	-7079
▁digit	-7080
▁maybe	-7081
▁logged	-7082
Property	-7083
spection	-7084
▁binding	-7085
▁manually	-7086
▁setLevel	-7087
▁scheduler	-7088
▁partitions	-7089
▁defaultdict	-7090
▁expressions	-7091
▁organization	-7092
"\	-7093
La	-7094
ILD	-7095
LOW	-7096
dge	-7097
▁ha	-7098
▁sx	-7099
ALID	-7100
blue	-7101
dims	-7102
ibly	-7103
irth	-7104
onds	-7105
▁';'	-7106
ident	-7107
pairs	-7108
plots	-7109
▁UUID	-7110
Offset	-7111
Python	-7112
effect	-7113
getter	-7114
▁Yield	-7115
▁arbit	-7116
▁datas	-7117
▁devid	-7118
▁ncols	-7119
▁nrows	-7120
datasift	-7121
▁depends	-7122
▁restore	-7123
▁student	-7124
▁observer	-7125
▁repeated	-7126
Attributes	-7127
QuerySession	-7128
OCK	-7129
URN	-7130
▁Go	-7131
▁tt	-7132
ancy	-7133
olds	-7134
▁neg	-7135
facet	-7136
lopen	-7137
slice	-7138
tuples	-7139
▁Cache	-7140
▁bench	-7141
▁Assume	-7142
Customer	-7143
contains	-7144
redirect	-7145
▁restrict	-7146
Av	-7147
':'	-7148
▁CH	-7149
ales	-7150
reci	-7151
resp	-7152
seed	-7153
▁":"	-7154
▁May	-7155
embed	-7156
inger	-7157
retry	-7158
sheet	-7159
worker	-7160
exclude	-7161
reeding	-7162
calibration	-7163
▁communicate	-7164
,'	-7165
PL	-7166
PY	-7167
Pe	-7168
UES	-7169
dig	-7170
etc	-7171
udo	-7172
yes	-7173
▁AL	-7174
▁Don	-7175
▁hdf	-7176
alogs	-7177
enter	-7178
super	-7179
▁nome	-7180
▁recv	-7181
tected	-7182
▁Point	-7183
outputs	-7184
▁hourly	-7185
▁listed	-7186
Document	-7187
ficients	-7188
▁expires	-7189
▁canonical	-7190
FormatError	-7191
▁identified	-7192
({	-7193
Pix	-7194
Rep	-7195
SPA	-7196
ald	-7197
ely	-7198
▁({	-7199
▁Su	-7200
outh	-7201
▁PRO	-7202
▁ftp	-7203
▁vip	-7204
curve	-7205
▁cdpp	-7206
▁much	-7207
▁subs	-7208
marker	-7209
▁impro	-7210
▁succe	-7211
country	-7212
crypted	-7213
odename	-7214
ributed	-7215
▁invert	-7216
Password	-7217
certaint	-7218
forecast	-7219
▁visible	-7220
▁boundary	-7221
▁exponent	-7222
▁rollback	-7223
sertionError	-7224
bi	-7225
Mon	-7226
ech	-7227
▁UP	-7228
▁DOM	-7229
▁won	-7230
stone	-7231
utton	-7232
▁loan	-7233
design	-7234
manage	-7235
nested	-7236
widget	-7237
▁alarm	-7238
▁logic	-7239
edirect	-7240
▁overrid	-7241
▁randint	-7242
▁scenario	-7243
▁filtering	-7244
▁returncode	-7245
instructions	-7246
+)\	-7247
ALT	-7248
Api	-7249
Lim	-7250
Row	-7251
ann	-7252
Show	-7253
mous	-7254
▁'|'	-7255
▁bam	-7256
▁hdx	-7257
adapt	-7258
grids	-7259
mdata	-7260
speed	-7261
▁Comm	-7262
▁ECEF	-7263
▁noqa	-7264
packet	-7265
tredis	-7266
▁green	-7267
▁stand	-7268
queries	-7269
ritical	-7270
▁Option	-7271
▁colour	-7272
▁router	-7273
▁	-7274
_	-7275
e	-7276
E	-7277
N	-7278
t	-7279
s	-7280
a	-7281
r	-7282
i	-7283
n	-7284
o	-7285
l	-7286
I	-7287
d	-7288
L	-7289
c	-7290
W	-7291
f	-7292
p	-7293
u	-7294
m	-7295
D	-7296
.	-7297
h	-7298
T	-7299
g	-7300
)	-7301
(	-7302
"	-7303
:	-7304
,	-7305
'	-7306
=	-7307
y	-7308
b	-7309
v	-7310
w	-7311
x	-7312
k	-7313
-	-7314
[	-7315
]	-7316
`	-7317
0	-7318
S	-7319
1	-7320
#	-7321
A	-7322
R	-7323
C	-7324
j	-7325
q	-7326
P	-7327
*	-7328
F	-7329
O	-7330
2	-7331
>	-7332
/	-7333
{	-7334
}	-7335
M	-7336
z	-7337
+	-7338
%	-7339
U	-7340
G	-7341
B	-7342
3	-7343
V	-7344
H	-7345
\	-7346
5	-7347
4	-7348
|	-7349
<	-7350
6	-7351
K	-7352
8	-7353
Y	-7354
9	-7355
X	-7356
!	-7357
7	-7358
Q	-7359
@	-7360
J	-7361
?	-7362
;	-7363
Z	-7364
~	-7365
&	-7366
$	-7367
^	-7368
的	-7369
ã	-7370
번	-7371
호	-7372
文	-7373
ç	-7374
자	-7375
회	-7376
á	-7377
원	-7378
。	-7379
서	-7380
é	-7381
件	-7382
팝	-7383
빌	-7384
е	-7385
지	-7386
数	-7387
用	-7388
리	-7389
업	-7390
전	-7391
是	-7392
а	-7393
다	-7394
이	-7395
и	-7396
사	-7397
가	-7398
니	-7399
습	-7400
时	-7401
为	-7402
一	-7403
名	-7404
않	-7405
입	-7406
о	-7407
字	-7408
세	-7409
수	-7410
’	-7411
中	-7412
н	-7413
不	-7414
송	-7415
력	-7416
관	-7417
되	-7418
았	-7419
表	-7420
课	-7421
아	-7422
径	-7423
디	-7424
‘	-7425
т	-7426
列	-7427
对	-7428
符	-7429
문	-7430
보	-7431
정	-7432
р	-7433
程	-7434
下	-7435
ó	-7436
路	-7437
형	-7438
有	-7439
시	-7440
일	-7441
空	-7442
间	-7443
└	-7444
回	-7445
│	-7446
명	-7447
발	-7448
个	-7449
成	-7450
据	-7451
包	-7452
码	-7453
目	-7454
取	-7455
否	-7456
或	-7457
能	-7458
以	-7459
금	-7460
如	-7461
要	-7462
后	-7463
方	-7464
청	-7465
과	-7466
在	-7467
行	-7468
开	-7469
选	-7470
с	-7471
格	-7472
结	-7473
м	-7474
传	-7475
果	-7476
°	-7477
录	-7478
返	-7479
в	-7480
л	-7481
号	-7482
ä	-7483
定	-7484
标	-7485
용	-7486
종	-7487
ö	-7488
к	-7489
上	-7490
可	-7491
인	-7492
度	-7493
请	-7494
学	-7495
户	-7496
록	-7497
파	-7498
信	-7499
片	-7500
则	-7501
参	-7502
式	-7503
认	-7504
결	-7505
à	-7506
单	-7507
接	-7508
期	-7509
요	-7510
з	-7511
应	-7512
次	-7513
歌	-7514
신	-7515
地	-7516
获	-7517
象	-7518
默	-7519
영	-7520
õ	-7521
使	-7522
├	-7523
所	-7524
过	-7525
드	-7526
증	-7527
처	-7528
加	-7529
п	-7530
代	-7531
到	-7532
发	-7533
스	-7534
я	-7535
将	-7536
구	-7537
목	-7538
进	-7539
유	-7540
⊙	-7541
值	-7542
模	-7543
理	-7544
生	-7545
白	-7546
量	-7547
부	-7548
태	-7549
д	-7550
ч	-7551
内	-7552
出	-7553
当	-7554
类	-7555
需	-7556
코	-7557
у	-7558
”	-7559
分	-7560
务	-7561
图	-7562
头	-7563
存	-7564
조	-7565
“	-7566
═	-7567
于	-7568
前	-7569
型	-7570
할	-7571
会	-7572
入	-7573
和	-7574
处	-7575
必	-7576
教	-7577
曲	-7578
长	-7579
页	-7580
메	-7581
制	-7582
化	-7583
含	-7584
最	-7585
계	-7586
放	-7587
限	-7588
류	-7589
확	-7590
周	-7591
指	-7592
查	-7593
求	-7594
내	-7595
트	-7596
â	-7597
ú	-7598
ư	-7599
б	-7600
串	-7601
档	-7602
调	-7603
除	-7604
四	-7605
小	-7606
息	-7607
法	-7608
点	-7609
话	-7610
须	-7611
거	-7612
팩	-7613
原	-7614
并	-7615
新	-7616
条	-7617
组	-7618
送	-7619
행	-7620
í	-7621
删	-7622
板	-7623
示	-7624
称	-7625
题	-7626
장	-7627
ơ	-7628
大	-7629
换	-7630
段	-7631
班	-7632
载	-7633
너	-7634
동	-7635
래	-7636
르	-7637
바	-7638
배	-7639
열	-7640
올	-7641
작	-7642
표	-7643
括	-7644
持	-7645
당	-7646
등	-7647
산	-7648
ê	-7649
多	-7650
日	-7651
章	-7652
여	-7653
作	-7654
口	-7655
容	-7656
本	-7657
机	-7658
置	-7659
重	-7660
대	-7661
상	-7662
약	-7663
접	-7664
체	-7665
→	-7666
了	-7667
相	-7668
转	-7669
验	-7670
식	-7671
제	-7672
현	-7673
例	-7674
保	-7675
唯	-7676
址	-7677
建	-7678
支	-7679
询	-7680
공	-7681
ש	-7682
█	-7683
与	-7684
之	-7685
同	-7686
尾	-7687
序	-7688
注	-7689
秒	-7690
第	-7691
识	-7692
该	-7693
这	-7694
音	-7695
从	-7696
网	-7697
试	-7698
로	-7699
ß	-7700
י	-7701
任	-7702
动	-7703
始	-7704
已	-7705
服	-7706
证	-7707
소	-7708
주	-7709
щ	-7710
╔	-7711
╗	-7712
╚	-7713
╝	-7714
功	-7715
变	-7716
待	-7717
权	-7718
短	-7719
톡	-7720
한	-7721
–	-7722
关	-7723
